{
  "vocab": {
    "<PAD>": 0,
    "<UNK>": 1,
    "<BOS>": 2,
    "<EOS>": 3,
    "<SEP>": 4,
    "xin</w>": 5,
    "chào</w>": 6,
    "|</w>": 7,
    "ối</w>": 8,
    "bạn</w>": 9,
    "ơi</w>": 10,
    "xịn</w>": 11,
    "sò</w>": 12,
    "ghé</w>": 13,
    "thăm</w>": 14,
    "mini</w>": 15,
    "rồi</w>": 16,
    "hôm</w>": 17,
    "nay</w>": 18,
    "cần</w>": 19,
    "gì</w>": 20,
    "cứ</w>": 21,
    "hỏi</w>": 22,
    "đi</w>": 23,
    "nha</w>": 24,
    "luôn</w>": 25,
    "sẵn</w>": 26,
    "sàng</w>": 27,
    "gpt</w>": 28,
    "đây</w>": 29,
    "nè</w>": 30,
    "thế</w>": 31,
    "nào</w>": 32,
    "có</w>": 33,
    "vui</w>": 34,
    "không</w>": 35,
    "kể</w>": 36,
    "nghe</w>": 37,
    "với</w>": 38,
    "muốn</w>": 39,
    "hay</w>": 40,
    "tám</w>": 41,
    "chuyện</w>": 42,
    "tự</w>": 43,
    "nhiên</w>": 44,
    "hello</w>": 45,
    "cũng</w>": 46,
    "được</w>": 47,
    "mình</w>": 48,
    "lắng</w>": 49,
    "và</w>": 50,
    "trả</w>": 51,
    "lời</w>": 52,
    "hết</w>": 53,
    "hey</w>": 54,
    "giúp</w>": 55,
    "hi</w>": 56,
    "ở</w>": 57,
    "alo</w>": 58,
    "nói</w>": 59,
    "đừng</w>": 60,
    "ngại</w>": 61,
    "ê</w>": 62,
    "đang</w>": 63,
    "này</w>": 64,
    "ừ</w>": 65,
    "thẳng</w>": 66,
    "ra</w>": 67,
    "ai</w>": 68,
    "đâu</w>": 69,
    "còn</w>": 70,
    "đó</w>": 71,
    "chứ</w>": 72,
    "vậy</w>": 73,
    "là</w>": 74,
    "một</w>": 75,
    "con</w>": 76,
    "nhỏ</w>": 77,
    "tạo</w>": 78,
    "trong</w>": 79,
    "world</w>": 80,
    "để</w>": 81,
    "làm</w>": 82,
    "trò</w>": 83,
    "mọi</w>": 84,
    "người</w>": 85,
    "tuy</w>": 86,
    "nhưng</w>": 87,
    "cố</w>": 88,
    "sức</w>": 89,
    "ích</w>": 90,
    "cho</w>": 91,
    "tên</w>": 92,
    "gọi</w>": 93,
    "thân</w>": 94,
    "mật</w>": 95,
    "hơn</w>": 96,
    "thích</w>": 97,
    "thiện</w>": 98,
    "như</w>": 99,
    "lắm</w>": 100,
    "mày</w>": 101,
    "ơ</w>": 102,
    "k": 103,
    "ìa</w>": 104,
    "trồng</w>": 105,
    "kho": 106,
    "đất</w>": 107,
    "haha</w>": 108,
    "khá</w>": 109,
    "nhiều</w>": 110,
    "thứ</w>": 111,
    "đời</w>": 112,
    "thường</w>": 113,
    "hướng</w>": 114,
    "dẫn</w>": 115,
    "cười</w>": 116,
    "khi</w>": 117,
    "chia</w>": 118,
    "sẻ</w>": 119,
    "thử</w>": 120,
    "xem</w>": 121,
    "thông</w>": 122,
    "minh</w>": 123,
    "vừa</w>": 124,
    "thôi</w>": 125,
    "dám</w>": 126,
    "nhận</w>": 127,
    "đỉnh</w>": 128,
    "của</w>": 129,
    "chóp</w>": 130,
    "đúng</w>": 131,
    "hữu</w>": 132,
    "nhất</w>": 133,
    "thể</w>": 134,
    "đôi</w>": 135,
    "sai</w>": 136,
    "nên</w>": 137,
    "góp</w>": 138,
    "ý</w>": 139,
    "khỏe</w>": 140,
    "re</w>": 141,
    "thì</w>": 142,
    "bệnh</w>": 143,
    "ngày</w>": 144,
    "tràn</w>": 145,
    "đầy</w>": 146,
    "năng</w>": 147,
    "lượng</w>": 148,
    "sao</w>": 149,
    "sống</w>": 150,
    "nhà</w>": 151,
    "ấm</w>": 152,
    "cúng</w>": 153,
    "mỗi</w>": 154,
    "gặp</w>": 155,
    "chơi</w>": 156,
    "bao</w>": 157,
    "nhiêu</w>": 158,
    "tuổi</w>": 159,
    "mà</w>": 160,
    "mới</w>": 161,
    "gần</w>": 162,
    "coi</w>": 163,
    "trẻ</w>": 164,
    "học</w>": 165,
    "bởi</w>": 166,
    "rất</w>": 167,
    "bỏ</w>": 168,
    "công</w>": 169,
    "sau</w>": 170,
    "cuộc</w>": 171,
    "đều</w>": 172,
    "ghét</w>": 173,
    "buồn</w>": 174,
    "lại</w>": 175,
    "thoải</w>": 176,
    "mái</w>": 177,
    "ước</w>": 178,
    "mơ</w>": 179,
    "thật</w>": 180,
    "dù</w>": 181,
    "chỉ</w>": 182,
    "chút</w>": 183,
    "nếu</w>": 184,
    "thấy</w>": 185,
    "nghĩa</w>": 186,
    "biết</w>": 187,
    "sẽ</w>": 188,
    "d": 189,
    "thành</w>": 190,
    "ổn</w>": 191,
    "bè</w>": 192,
    "chính</w>": 193,
    "nữa</w>": 194,
    "gia</w>": 195,
    "đình</w>": 196,
    "những</w>": 197,
    "áp</w>": 198,
    "ôi</w>": 199,
    "cảm</w>": 200,
    "ơn</w>": 201,
    "thú</w>": 202,
    "vị</w>": 203,
    "mong</w>": 204,
    "câu</w>": 205,
    "nghĩ</w>": 206,
    "ít</w>": 207,
    "vẻ</w>": 208,
    "nhiệt</w>": 209,
    "tình</w>": 210,
    "chắc</w>": 211,
    "chắn</w>": 212,
    "bằng</w>": 213,
    "chi</w>": 214,
    "lần</w>": 215,
    "tạm</w>": 216,
    "biệt</w>": 217,
    "nhé</w>": 218,
    "chờ</w>": 219,
    "lâu</w>": 220,
    "quá</w>": 221,
    "hehe</w>": 222,
    "goodbye</w>": 223,
    "nhớ</w>": 224,
    "sớm</w>": 225,
    "ngủ</w>": 226,
    "ngon</w>": 227,
    "đẹp</w>": 228,
    "mai</w>": 229,
    "dậy</w>": 230,
    "tươi</w>": 231,
    "tỉnh</w>": 232,
    "tiếp</w>": 233,
    "buổi</w>": 234,
    "sáng</w>": 235,
    "đủ</w>": 236,
    "chưa</w>": 237,
    "tối</w>": 238,
    "trước</w>": 239,
    "lúc</w>": 240,
    "về</w>": 241,
    "hoàn</w>": 242,
    "hảo</w>": 243,
    "gắng</w>": 244,
    "game</w>": 245,
    "xây</w>": 246,
    "dựng</w>": 247,
    "giới</w>": 248,
    "mở</w>": 249,
    "cực</w>": 250,
    "kỳ</w>": 251,
    "chiến</w>": 252,
    "đấu</w>": 253,
    "khám</w>": 254,
    "phá</w>": 255,
    "cùng</w>": 256,
    "miễn</w>": 257,
    "phí</w>": 258,
    "trên</w>": 259,
    "điện</w>": 260,
    "thoại</w>": 261,
    "lẫn</w>": 262,
    "máy</w>": 263,
    "tính</w>": 264,
    "đặc</w>": 265,
    "ảo</w>": 266,
    "ma</w>": 267,
    "canada</w>": 268,
    "vùng</w>": 269,
    "đánh</w>": 270,
    "boss</w>": 271,
    "nhau</w>": 272,
    "bắt</w>": 273,
    "đầu</w>": 274,
    "từ</w>": 275,
    "cách</w>": 276,
    "chặt</w>": 277,
    "cây</w>": 278,
    "lấy</w>": 279,
    "gỗ</w>": 280,
    "đồ</w>": 281,
    "craft</w>": 282,
    "cơ</w>": 283,
    "bản</w>": 284,
    "trú</w>": 285,
    "ban</w>": 286,
    "đêm</w>": 287,
    "đào</w>": 288,
    "đá</w>": 289,
    "kiếm</w>": 290,
    "than</w>": 291,
    "rộng</w>": 292,
    "dần</w>": 293,
    "phải</w>": 294,
    "tiên</w>": 295,
    "quan</w>": 296,
    "trọng</w>": 297,
    "chỗ</w>": 298,
    "quái</w>": 299,
    "vật</w>": 300,
    "xấu</w>": 301,
    "thu</w>": 302,
    "thập</w>": 303,
    "tài</w>": 304,
    "nguyên</w>": 305,
    "nền</w>": 306,
    "tường</w>": 307,
    "đặt</w>": 308,
    "block</w>": 309,
    "từng</w>": 310,
    "tầng</w>": 311,
    "lên</w>": 312,
    "cửa</w>": 313,
    "vào</w>": 314,
    "thắp</w>": 315,
    "đuốc</w>": 316,
    "bên</w>": 317,
    "tìm</w>": 318,
    "rừng</w>": 319,
    "m": 320,
    "ọc</w>": 321,
    "khắp</w>": 322,
    "nơi</w>": 323,
    "khó</w>": 324,
    "mang</w>": 325,
    "rìu</w>": 326,
    "nhanh</w>": 327,
    "tay</w>": 328,
    "xuống</w>": 329,
    "ngay</w>": 330,
    "dưới</w>": 331,
    "lớp</w>": 332,
    "mặt</w>": 333,
    "cuốc</w>": 334,
    "liền</w>": 335,
    "v": 336,
    "ách</w>": 337,
    "núi</w>": 338,
    "hoặc</w>": 339,
    "lòng</w>": 340,
    "phổ</w>": 341,
    "biến</w>": 342,
    "hiếm</w>": 343,
    "hang</w>": 344,
    "động</w>": 345,
    "sắt</w>": 346,
    "sâu</w>": 347,
    "tốt</w>": 348,
    "vàng</w>": 349,
    "lớn</w>": 350,
    "kiên</w>": 351,
    "nhẫn</w>": 352,
    "kim</w>": 353,
    "cương</w>": 354,
    "thấp</w>": 355,
    "nước</w>": 356,
    "ngầm</w>": 357,
    "ăn</w>": 358,
    "mãi</w>": 359,
    "thêm</w>": 360,
    "theo</w>": 361,
    "đường</w>": 362,
    "chéo</w>": 363,
    "qu": 364,
    "ét</w>": 365,
    "dùng</w>": 366,
    "sét</w>": 367,
    "sông</w>": 368,
    "hồ</w>": 369,
    "xung</w>": 370,
    "quanh</w>": 371,
    "ẩm</w>": 372,
    "ướt</w>": 373,
    "gạch</w>": 374,
    "sứ</w>": 375,
    "cát</w>": 376,
    "b": 377,
    "ãi</w>": 378,
    "biển</w>": 379,
    "sa</w>": 380,
    "mạc</w>": 381,
    "ven</w>": 382,
    "dễ</w>": 383,
    "kính</w>": 384,
    "bê</w>": 385,
    "tông</w>": 386,
    "săn</w>": 387,
    "lúa</w>": 388,
    "mì</w>": 389,
    "định</w>": 390,
    "dài</w>": 391,
    "cả</w>": 392,
    "hai</w>": 393,
    "an</w>": 394,
    "toàn</w>": 395,
    "mạnh</w>": 396,
    "giáp</w>": 397,
    "ngoài</w>": 398,
    "máu</w>": 399,
    "bình</w>": 400,
    "hồi</w>": 401,
    "thức</w>": 402,
    "chậm</w>": 403,
    "chạy</w>": 404,
    "khúc</w>": 405,
    "rẻ</w>": 406,
    "c": 407,
    "ắm</w>": 408,
    "dọc</w>": 409,
    "khối</w>": 410,
    "liệu</w>": 411,
    "án</w>": 412,
    "càng</w>": 413,
    "tăng</w>": 414,
    "ngang</w>": 415,
    "kiểu</w>": 416,
    "l</w>": 417,
    "so</w>": 418,
    "ba</w>": 419,
    "sợi</w>": 420,
    "thả</w>": 421,
    "cá</w>": 422,
    "lạ</w>": 423,
    "bàn</w>": 424,
    "việc</w>": 425,
    "bốn</w>": 426,
    "xếp</w>": 427,
    "ô</w>": 428,
    "vuông</w>": 429,
    "vì</w>": 430,
    "hầu</w>": 431,
    "lò</w>": 432,
    "nung</w>": 433,
    "hình</w>": 434,
    "tr": 435,
    "ống</w>": 436,
    "giữa</w>": 437,
    "quặng</w>": 438,
    "loại</w>": 439,
    "nấu</w>": 440,
    "chín</w>": 441,
    "bộ</w>": 442,
    "mũ</w>": 443,
    "áo</w>": 444,
    "quần</w>": 445,
    "giày</w>": 446,
    "đến</w>": 447,
    "miếng</w>": 448,
    "bảo</w>": 449,
    "vệ</w>": 450,
    "mặc</w>": 451,
    "giảm</w>": 452,
    "sát</w>": 453,
    "thương</w>": 454,
    "bị</w>": 455,
    "chịu</w>": 456,
    "đòn</w>": 457,
    "cung</w>": 458,
    "mũi</w>": 459,
    "que</w>": 460,
    "lông</w>": 461,
    "vũ</w>": 462,
    "lửa</w>": 463,
    "bắn</w>": 464,
    "ghép</w>": 465,
    "dự</w>": 466,
    "ữ</w>": 467,
    "tốn</w>": 468,
    "hạt</w>": 469,
    "giống</w>": 470,
    "canh</w>": 471,
    "tác</w>": 472,
    "nguồn</w>": 473,
    "gi": 474,
    "eo</w>": 475,
    "tưới</w>": 476,
    "vài</w>": 477,
    "hoạch</w>": 478,
    "tương</w>": 479,
    "ứng</w>": 480,
    "số</w>": 481,
    "ánh</w>": 482,
    "trái</w>": 483,
    "tùy</w>": 484,
    "nuôi</w>": 485,
    "dụ</w>": 486,
    "chúng</w>": 487,
    "yêu</w>": 488,
    "ví</w>": 489,
    "gà</w>": 490,
    "lợn</w>": 491,
    "cà</w>": 492,
    "r": 493,
    "ốt</w>": 494,
    "bò</w>": 495,
    "dây</w>": 496,
    "thừng</w>": 497,
    "chu": 498,
    "ồng</w>": 499,
    "bay</w>": 500,
    "cánh</w>": 501,
    "phẩm</w>": 502,
    "rớt</w>": 503,
    "bơi</w>": 504,
    "thanh</w>": 505,
    "hơi</w>": 506,
    "thở</w>": 507,
    "ng": 508,
    "ộp</w>": 509,
    "chế</w>": 510,
    "độ</w>": 511,
    "sinh</w>": 512,
    "tồn</w>": 513,
    "cẩn</w>": 514,
    "thận</w>": 515,
    "di</w>": 516,
    "chuyển</w>": 517,
    "tốc</w>": 518,
    "teleport</w>": 519,
    "dịch</w>": 520,
    "tòa</w>": 521,
    "tiết</w>": 522,
    "kiệm</w>": 523,
    "thời</w>": 524,
    "gian</w>": 525,
    "map</w>": 526,
    "tận</w>": 527,
    "dụng</w>": 528,
    "hiệu</w>": 529,
    "quả</w>": 530,
    "quý</w>": 531,
    "nguy</w>": 532,
    "hiểm</w>": 533,
    "chuẩn</w>": 534,
    "kỹ</w>": 535,
    "khí</w>": 536,
    "quên</w>": 537,
    "dấu</w>": 538,
    "mốc</w>": 539,
    "cao</w>": 540,
    "nhìn</w>": 541,
    "xa</w>": 542,
    "lạc</w>": 543,
    "tĩnh</w>": 544,
    "quen</w>": 545,
    "thuộc</w>": 546,
    "trời</w>": 547,
    "ẩn</w>": 548,
    "đột</w>": 549,
    "ngột</w>": 550,
    "đứng</w>": 551,
    "hầm</w>": 552,
    "lung</w>": 553,
    "tung</w>": 554,
    "mất</w>": 555,
    "thách</w>": 556,
    "bước</w>": 557,
    "vội</w>": 558,
    "lo</w>": 559,
    "thiếu</w>": 560,
    "chết</w>": 561,
    "hợp</w>": 562,
    "cụ</w>": 563,
    "phẳng</w>": 564,
    "tại</w>": 565,
    "nhân</w>": 566,
    "đói</w>": 567,
    "xuyên</w>": 568,
    "phòng</w>": 569,
    "qua</w>": 570,
    "nether</w>": 571,
    "end</w>": 572,
    "drop</w>": 573,
    "thẻ</w>": 574,
    "đổi</w>": 575,
    "độc</w>": 576,
    "mua</w>": 577,
    "skin</w>": 578,
    "cân</w>": 579,
    "nhắc</w>": 580,
    "tiêu</w>": 581,
    "ặp</w>": 582,
    "hàng</w>": 583,
    "tặng</w>": 584,
    "đỡ</w>": 585,
    "lãng</w>": 586,
    "giá</w>": 587,
    "thay</w>": 588,
    "đ": 589,
    "ợ": 590,
    "t</w>": 591,
    "sự</w>": 592,
    "kiện</w>": 593,
    "nạp</w>": 594,
    "kiểm</w>": 595,
    "tra</w>": 596,
    "mục</w>": 597,
    "tham</w>": 598,
    "tuần</w>": 599,
    "nhiệm</w>": 600,
    "vụ</w>": 601,
    "đăng</w>": 602,
    "nhập</w>": 603,
    "liên</w>": 604,
    "gu</w>": 605,
    "riêng</w>": 606,
    "mấy</w>": 607,
    "chủ</w>": 608,
    "đề</w>": 609,
    "lễ</w>": 610,
    "hội</w>": 611,
    "ón</w>": 612,
    "s": 613,
    "ưu</w>": 614,
    "tập</w>": 615,
    "tủ</w>": 616,
    "chọn</w>": 617,
    "nhấn</w>": 618,
    "trang</w>": 619,
    "xong</w>": 620,
    "gọn</w>": 621,
    "áng</w>": 622,
    "dàng</w>": 623,
    "thiết</w>": 624,
    "kế</w>": 625,
    "đáo</w>": 626,
    "tranh</w>": 627,
    "thủ</w>": 628,
    "kết</w>": 629,
    "gửi</w>": 630,
    "mời</w>": 631,
    "cộng</w>": 632,
    "đồng</w>": 633,
    "xóa</w>": 634,
    "danh</w>": 635,
    "sách</w>": 636,
    "duyên</w>": 637,
    "lin": 638,
    "k</w>": 639,
    "họ</w>": 640,
    "đơn</w>": 641,
    "giản</w>": 642,
    "server</w>": 643,
    "khẩu</w>": 644,
    "tư</w>": 645,
    "tin</w>": 646,
    "đông</w>": 647,
    "lag</w>": 648,
    "họa</w>": 649,
    "tắt</w>": 650,
    "mạng</w>": 651,
    "wifi</w>": 652,
    "4g</w>": 653,
    "mượt</w>": 654,
    "đóng</w>": 655,
    "bớt</w>": 656,
    "ta": 657,
    "b</w>": 658,
    "trình</w>": 659,
    "duy": 660,
    "ệt</w>": 661,
    "khởi</w>": 662,
    "nối</w>": 663,
    "vẫn</w>": 664,
    "trì</w>": 665,
    "gỡ</w>": 666,
    "cài</w>": 667,
    "ache</w>": 668,
    "cập</w>": 669,
    "nhật</w>": 670,
    "sửa</w>": 671,
    "lỗi</w>": 672,
    "thưởng</w>": 673,
    "xu</w>": 674,
    "đọc</w>": 675,
    "cầu</w>": 676,
    "lo": 677,
    "anh</w>": 678,
    "facebook</w>": 679,
    "khoản</w>": 680,
    "uy</w>": 681,
    "tín</w>": 682,
    "bật</w>": 683,
    "xác</w>": 684,
    "thực</w>": 685,
    "màn</w>": 686,
    "email</w>": 687,
    "ký</w>": 688,
    "mail</w>": 689,
    "bảng</w>": 690,
    "hạng</w>": 691,
    "top</w>": 692,
    "giỏi</w>": 693,
    "khác</w>": 694,
    "phần</w>": 695,
    "hạn</w>": 696,
    "các</w>": 697,
    "tấn</w>": 698,
    "né</w>": 699,
    "toang</w>": 700,
    "yên</w>": 701,
    "tục</w>": 702,
    "liều</w>": 703,
    "xuất</w>": 704,
    "hiện</w>": 705,
    "kích</w>": 706,
    "hoạt</w>": 707,
    "điều</w>": 708,
    "triệu</w>": 709,
    "zombie</w>": 710,
    "nhóm</w>": 711,
    "ngăn</w>": 712,
    "spawn</w>": 713,
    "skeleton</w>": 714,
    "cận</w>": 715,
    "khiên</w>": 716,
    "tránh</w>": 717,
    "spider</w>": 718,
    "leo</w>": 719,
    "creeper</w>": 720,
    "nổ</w>": 721,
    "tiếng</w>": 722,
    "xì</w>": 723,
    "lùi</w>": 724,
    "phản</w>": 725,
    "địa</w>": 726,
    "lợi</w>": 727,
    "hào</w>": 728,
    "enchant</w>": 729,
    "nâng</w>": 730,
    "cấp</w>": 731,
    "phép</w>": 732,
    "hút</w>": 733,
    "pattern</w>": 734,
    "điểm</w>": 735,
    "giết</w>": 736,
    "farm</w>": 737,
    "ap</w>": 738,
    "spo": 739,
    "hardcore</w>": 740,
    "dành</w>": 741,
    "đã</w>": 742,
    "màu</w>": 743,
    "đối</w>": 744,
    "xứng</w>": 745,
    "sổ</w>": 746,
    "trí</w>": 747,
    "đèn</w>": 748,
    "combo</w>": 749,
    "ộc</w>": 750,
    "vững</w>": 751,
    "đại</w>": 752,
    "nội</w>": 753,
    "thất</w>": 754,
    "ghế</w>": 755,
    "kệ</w>": 756,
    "giường</w>": 757,
    "sắp</w>": 758,
    "lý</w>": 759,
    "thảm</w>": 760,
    "sàn</w>": 761,
    "lồng</w>": 762,
    "phát</w>": 763,
    "đài</w>": 764,
    "quy</w>": 765,
    "mô</w>": 766,
    "nông</w>": 767,
    "trại</w>": 768,
    "rào</w>": 769,
    "hệ</w>": 770,
    "thống</w>": 771,
    "hiểu</w>": 772,
    "redstone</w>": 773,
    "bẫy</w>": 774,
    "sân</w>": 775,
    "vườn</w>": 776,
    "hoa</w>": 777,
    "lối</w>": 778,
    "cuội</w>": 779,
    "ao</w>": 780,
    "phong</w>": 781,
    "cong</w>": 782,
    "tre</w>": 783,
    "wa": 784,
    "bi</w>": 785,
    "sa": 786,
    "góc</w>": 787,
    "cạnh</w>": 788,
    "ắn</w>": 789,
    "ườ": 790,
    "m</w>": 791,
    "à</w>": 792,
    "sang</w>": 793,
    "phối</w>": 794,
    "trung</w>": 795,
    "x": 796,
    "ám</w>": 797,
    "n": 798,
    "âu</w>": 799,
    "ạn</w>": 800,
    "mắt</w>": 801,
    "óng</w>": 802,
    "thang</w>": 803,
    "đảm</w>": 804,
    "ã": 805,
    "nh</w>": 806,
    "đổ</w>": 807,
    "lội</w>": 808,
    "giữ</w>": 809,
    "nhẹ</w>": 810,
    "khóc</w>": 811,
    "kìm</w>": 812,
    "nén</w>": 813,
    "vấn</w>": 814,
    "ya": 815,
    "y": 816,
    "y</w>": 817,
    "l": 818,
    "ây</w>": 819,
    "mệt</w>": 820,
    "nghỉ</w>": 821,
    "ngơi</w>": 822,
    "tí</w>": 823,
    "uống</w>": 824,
    "chán</w>": 825,
    "óc</w>": 826,
    "ép</w>": 827,
    "cô</w>": 828,
    "nghiêm</w>": 829,
    "túc</w>": 830,
    "giác</w>": 831,
    "trải</w>": 832,
    "hít</w>": 833,
    "xảy</w>": 834,
    "tức</w>": 835,
    "giận</w>": 836,
    "hành</w>": 837,
    "xử</w>": 838,
    "hối</w>": 839,
    "h": 840,
    "ận</w>": 841,
    "đau</w>": 842,
    "thiệt</w>": 843,
    "lành</w>": 844,
    "đáng</w>": 845,
    "hạnh</w>": 846,
    "phúc</w>": 847,
    "hãy</w>": 848,
    "cũ</w>": 849,
    "nỗi</w>": 850,
    "kéo</w>": 851,
    "khứ</w>": 852,
    "phía</w>": 853,
    "ta</w>": 854,
    "dũng</w>": 855,
    "chối</w>": 856,
    "ch": 857,
    "thắn</w>": 858,
    "lầm</w>": 859,
    "giao</w>": 860,
    "rõ</w>": 861,
    "ràng</w>": 862,
    "giải</w>": 863,
    "quyết</w>": 864,
    "ội</w>": 865,
    "tâm</w>": 866,
    "trân</w>": 867,
    "ạ": 868,
    "thầy</w>": 869,
    "im</w>": 870,
    "lặng</w>": 871,
    "ganh</w>": 872,
    "t": 873,
    "ị</w>": 874,
    "xúc</w>": 875,
    "sánh</w>": 876,
    "mẹ</w>": 877,
    "lực</w>": 878,
    "nhàng</w>": 879,
    "trao</w>": 880,
    "bố</w>": 881,
    "vô</w>": 882,
    "trị</w>": 883,
    "nhở</w>": 884,
    "sợ</w>": 885,
    "bại</w>": 886,
    "bài</w>": 887,
    "rút</w>": 888,
    "kinh</w>": 889,
    "nghiệm</w>": 890,
    "đích</w>": 891,
    "bề</w>": 892,
    "kém</w>": 893,
    "a</w>": 894,
    "cái</w>": 895,
    "dừng</w>": 896,
    "quay</w>": 897,
    "cốt</w>": 898,
    "õi</w>": 899,
    "soát</w>": 900,
    "e": 901,
    "a": 902,
    "mo": 903,
    "de</w>": 904,
    "hứng</w>": 905,
    "khăn</w>": 906,
    "vượt</w>": 907,
    "tích</w>": 908,
    "bu": 909,
    "ông</w>": 910,
    "tiền</w>": 911,
    "tất</w>": 912,
    "tưởng</w>": 913,
    "lai</w>": 914,
    "phụ</w>": 915,
    "chân</w>": 916,
    "tôn</w>": 917,
    "ỏ</w>": 918,
    "mối</w>": 919,
    "tảng</w>": 920,
    "duy</w>": 921,
    "suy</w>": 922,
    "nhược</w>": 923,
    "trực</w>": 924,
    "phù</w>": 925,
    "quản</w>": 926,
    "ghi</w>": 927,
    "phân</w>": 928,
    "bốc</w>": 929,
    "mone": 930,
    "ti": 931,
    "ze</w>": 932,
    "sở</w>": 933,
    "nghề</w>": 934,
    "đam</w>": 935,
    "mê</w>": 936,
    "thị</w>": 937,
    "trường</w>": 938,
    "viết</w>": 939,
    "5": 940,
    "</w>": 941,
    "năm</w>": 942,
    "tới</w>": 943,
    "ngược</w>": 944,
    "tiến</w>": 945,
    "do</w>": 946,
    "hiến</w>": 947,
    "môi</w>": 948,
    "nhựa</w>": 949,
    "rác</w>": 950,
    "xã</w>": 951,
    "ảnh</w>": 952,
    "hưởng</w>": 953,
    "trạng</w>": 954,
    "ti</w>": 955,
    "luận</w>": 956,
    "phán</w>": 957,
    "xét</w>": 958,
    "kiến</w>": 959,
    "khoảnh</w>": 960,
    "khắc</w>": 961,
    "tế</w>": 962,
    "nhồi</w>": 963,
    "mươi</w>": 964,
    "lăm</w>": 965,
    "phút</w>": 966,
    "mười</w>": 967,
    "thi</w>": 968,
    "ử</w>": 969,
    "ôn</w>": 970,
    "đặn</w>": 971,
    "hại</w>": 972,
    "trượt</w>": 973,
    "nặng</w>": 974,
    "rằng</w>": 975,
    "kiệt</w>": 976,
    "chú</w>": 977,
    "giấy</w>": 978,
    "phương</w>": 979,
    "pháp</w>": 980,
    "spaced</w>": 981,
    "repetition</w>": 982,
    "thụ</w>": 983,
    "ngoại</w>": 984,
    "ngữ</w>": 985,
    "dung</w>": 986,
    "ngôn</w>": 987,
    "phim</w>": 988,
    "nhạc</w>": 989,
    "vựng</w>": 990,
    "cảnh</w>": 991,
    "nghiệp</w>": 992,
    "ngành</w>": 993,
    "giấc</w>": 994,
    "ấn</w>": 995,
    "tượng</w>": 996,
    "êu</w>": 997,
    "ày</w>": 998,
    "sạch</w>": 999,
    "phỏng</w>": 1000,
    "hộp</w>": 1001,
    "ty</w>": 1002,
    "tuyển</w>": 1003,
    "dòng</w>": 1004,
    "trách</w>": 1005,
    "ởi</w>": 1006,
    "bất</w>": 1007,
    "âm</w>": 1008,
    "ỉ</w>": 1009,
    "ôm</w>": 1010,
    "đồ": 1011,
    "tải</w>": 1012,
    "sếp</w>": 1013,
    "hỗ</w>": 1014,
    "trợ</w>": 1015,
    "deadline</w>": 1016,
    "task</w>": 1017,
    "tổng</w>": 1018,
    "nản</w>": 1019,
    "ck</w>": 1020,
    "f": 1021,
    "ing</w>": 1022,
    "vọng</w>": 1023,
    "chất</w>": 1024,
    "chuyên</w>": 1025,
    "j": 1026,
    "ob</w>": 1027,
    "bảy</w>": 1028,
    "khuya</w>": 1029,
    "giờ</w>": 1030,
    "phục</w>": 1031,
    "thư</w>": 1032,
    "giãn</w>": 1033,
    "thiền</w>": 1034,
    "rau</w>": 1035,
    "củ</w>": 1036,
    "protein</w>": 1037,
    "chiên</w>": 1038,
    "bữa</w>": 1039,
    "da</w>": 1040,
    "não</w>": 1041,
    "dục</w>": 1042,
    "mỏi</w>": 1043,
    "nh": 1044,
    "khoảng</w>": 1045,
    "ngồi</w>": 1046,
    "lưng</w>": 1047,
    "vươn</w>": 1048,
    "vai</w>": 1049,
    "chạ": 1050,
    "stress</w>": 1051,
    "gốc</w>": 1052,
    "ễ</w>": 1053,
    "nghiện</w>": 1054,
    "sử</w>": 1055,
    "báo</w>": 1056,
    "cơm</w>": 1057,
    "vận</w>": 1058,
    "tim</w>": 1059,
    "mạch</w>": 1060,
    "kháng</w>": 1061,
    "thuốc</w>": 1062,
    "thần</w>": 1063,
    "burnout</w>": 1064,
    "tinh</w>": 1065,
    "chàng</w>": 1066,
    "vợ</w>": 1067,
    "lặt</w>": 1068,
    "vặt</w>": 1069,
    "túi</w>": 1070,
    "respawn</w>": 1071,
    "ốc</w>": 1072,
    "sên</w>": 1073,
    "rùa</w>": 1074,
    "chê</w>": 1075,
    "cuối</w>": 1076,
    "nhầm</w>": 1077,
    "kịp</w>": 1078,
    "hài</w>": 1079,
    "tao</w>": 1080,
    "kia</w>": 1081,
    "minecraft</w>": 1082,
    "alarm</w>": 1083,
    "sáu</w>": 1084,
    "đố</w>": 1085,
    "đáp</w>": 1086,
    "miệng</w>": 1087,
    "lọ</w>": 1088,
    "gợi</w>": 1089,
    "iền</w>": 1090,
    "chui</w>": 1091,
    "đinh</w>": 1092,
    "ngầu</w>": 1093,
    "tuyệt</w>": 1094,
    "vời</w>": 1095,
    "ắt</w>": 1096,
    "hỏng</w>": 1097,
    "cứu</w>": 1098,
    "flex</w>": 1099,
    "khoe</w>": 1100,
    "ang</w>": 1101,
    "chill</w>": 1102,
    "vibe</w>": 1103,
    "căng</w>": 1104,
    "sus</w>": 1105,
    "ngờ</w>": 1106,
    "nghi</w>": 1107,
    "us</w>": 1108,
    "mid</w>": 1109,
    "tầm</w>": 1110,
    "ệ</w>": 1111,
    "xanh</w>": 1112,
    "dương</w>": 1113,
    "lá</w>": 1114,
    "thiên</w>": 1115,
    "mùa</w>": 1116,
    "xuân</w>": 1117,
    "nở</w>": 1118,
    "ú": 1119,
    "n</w>": 1120,
    "ph": 1121,
    "băng</w>": 1122,
    "tuyết</w>": 1123,
    "chữ</w>": 1124,
    "vòng</w>": 1125,
    "rời</w>": 1126,
    "khỏi</w>": 1127,
    "tem</w>": 1128,
    "mại</w>": 1129,
    "sĩ</w>": 1130,
    "ho": 1131,
    "tuy": 1132,
    "ến</w>": 1133,
    "chiếu</w>": 1134,
    "rạp</w>": 1135,
    "lịch</w>": 1136,
    "web</w>": 1137,
    "xăng</w>": 1138,
    "app</w>": 1139,
    "google</w>": 1140,
    "viện</w>": 1141,
    "xe</w>": 1142,
    "ộ</w>": 1143,
    "rành</w>": 1144,
    "tiện</w>": 1145,
    "khảo</w>": 1146,
    "review</w>": 1147,
    "dõi</w>": 1148,
    "bóng</w>": 1149,
    "thao</w>": 1150,
    "diễn</w>": 1151,
    "viên</w>": 1152,
    "nổi</w>": 1153,
    "phức</w>": 1154,
    "tạp</w>": 1155,
    "khoa</w>": 1156,
    "video</w>": 1157,
    "bác</w>": 1158,
    "ược</w>": 1159,
    "đoán</w>": 1160,
    "chữa</w>": 1161,
    "tỷ</w>": 1162,
    "la</w>": 1163,
    "ngân</w>": 1164,
    "bổng</w>": 1165,
    "giáo</w>": 1166,
    "tổ</w>": 1167,
    "chức</w>": 1168,
    "tiệm</w>": 1169,
    "cắt</w>": 1170,
    "map": 1171,
    "s</w>": 1172,
    "ưng</w>": 1173,
    "chứng</w>": 1174,
    "khoán</w>": 1175,
    "thủy</w>": 1176,
    "văn</w>": 1177,
    "lãi</w>": 1178,
    "suất</w>": 1179,
    "visa</w>": 1180,
    "quán</w>": 1181,
    "bền</w>": 1182,
    "thỏi</w>": 1183,
    "th": 1184,
    "no</w>": 1185,
    "chu</w>": 1186,
    "ầu</w>": 1187,
    "cam</w>": 1188,
    "tím</w>": 1189,
    "bánh</w>": 1190,
    "trốn</w>": 1191,
    "khu</w>": 1192,
    "vực</w>": 1193,
    "cổng</w>": 1194,
    "trứng</w>": 1195,
    "thịt</w>": 1196,
    "sữa</w>": 1197,
    "loài</w>": 1198,
    "chim</w>": 1199,
    "nhện</w>": 1200,
    "chống</w>": 1201,
    "ẹp</w>": 1202,
    "vây</w>": 1203,
    "hủy</w>": 1204,
    "xương</w>": 1205,
    "rồng</w>": 1206,
    "cháy</w>": 1207,
    "lao</w>": 1208,
    "hạ</w>": 1209,
    "khả</w>": 1210,
    "kẻ</w>": 1211,
    "địch</w>": 1212,
    "giai</w>": 1213,
    "đoạn</w>": 1214,
    "rương</w>": 1215,
    "dungeon</w>": 1216,
    "làng</w>": 1217,
    "trade</w>": 1218,
    "dân</w>": 1219,
    "may</w>": 1220,
    "mob</w>": 1221,
    "spawner</w>": 1222,
    "villager</w>": 1223,
    "bán</w>": 1224,
    "giế": 1225,
    "ng</w>": 1226,
    "đưa</w>": 1227,
    "ục</w>": 1228,
    "obsidian</w>": 1229,
    "ồi</w>": 1230,
    "nham</w>": 1231,
    "cứng</w>": 1232,
    "trăm</w>": 1233,
    "nghìn</w>": 1234,
    "to</w>": 1235,
    "nghiêng</w>": 1236,
    "bậc</w>": 1237,
    "dốc</w>": 1238,
    "sắc</w>": 1239,
    "hòa</w>": 1240,
    "trần</w>": 1241,
    "banner</w>": 1242,
    "treo</w>": 1243,
    "ếp</w>": 1244,
    "thùng</w>": 1245,
    "chứa</w>": 1246,
    "kho</w>": 1247,
    "gắn</w>": 1248,
    "nhãn</w>": 1249,
    "lục</w>": 1250,
    "ể</w>": 1251,
    "hố</w>": 1252,
    "trông</w>": 1253,
    "ành</w>": 1254,
    "khung</w>": 1255,
    "ắc</w>": 1256,
    "lan</w>": 1257,
    "can</w>": 1258,
    "rơi</w>": 1259,
    "san</w>": 1260,
    "ợi</w>": 1261,
    "ười</w>": 1262,
    "iế": 1263,
    "tắc</w>": 1264,
    "thói</w>": 1265,
    "ăng</w>": 1266,
    "cầm</w>": 1267,
    "ãn</w>": 1268,
    "ợp</w>": 1269,
    "o": 1270,
    "te</w>": 1271,
    "ngắn</w>": 1272,
    "kỷ</w>": 1273,
    "luật</w>": 1274,
    "chấp</w>": 1275,
    "ớ</w>": 1276,
    "yếu</w>": 1277,
    "phóng</w>": 1278,
    "ề</w>": 1279,
    "suốt</w>": 1280,
    "iện</w>": 1281,
    "lặp</w>": 1282,
    "tha</w>": 1283,
    "kh": 1284,
    "ổ</w>": 1285,
    "mắc</w>": 1286,
    "ranh</w>": 1287,
    "khe</w>": 1288,
    "luyện</w>": 1289,
    "g": 1290,
    "ương</w>": 1291,
    "lĩnh</w>": 1292,
    "nó</w>": 1293,
    "mind": 1294,
    "ul": 1295,
    "ness</w>": 1296,
    "w": 1297,
    "ha": 1298,
    "i": 1299,
    "lừa</w>": 1300,
    "đảo</w>": 1301,
    "ầm</w>": 1302,
    "thuật</w>": 1303,
    "cải</w>": 1304,
    "phê</w>": 1305,
    "chiều</w>": 1306,
    "mát</w>": 1307,
    "ẻ</w>": 1308,
    "đa</w>": 1309,
    "dạng</w>": 1310,
    "ũ</w>": 1311,
    "muối</w>": 1312,
    "éo</w>": 1313,
    "ki": 1314,
    "êng</w>": 1315,
    "ặt</w>": 1316,
    "môn</w>": 1317,
    "yoga</w>": 1318,
    "ường</w>": 1319,
    "chăm</w>": 1320,
    "sóc</w>": 1321,
    "uối</w>": 1322,
    "ngo": 1323,
    "dưỡng</w>": 1324,
    "lập</w>": 1325,
    "ủ</w>": 1326,
    "lệ</w>": 1327,
    "chụp</w>": 1328,
    "mod</w>": 1329,
    "con": 1330,
    "pt</w>": 1331,
    "in": 1332,
    "ter": 1333,
    "face</w>": 1334,
    "an": 1335,
    "dro": 1336,
    "d</w>": 1337,
    "store</w>": 1338,
    "play</w>": 1339,
    "ree</w>": 1340,
    "update</w>": 1341,
    "ỡ</w>": 1342,
    "offline</w>": 1343,
    "terne": 1344,
    "ứa</w>": 1345,
    "o</w>": 1346,
    "mức</w>": 1347,
    "việt</w>": 1348,
    "diện</w>": 1349,
    "thuận</w>": 1350,
    "quốc</w>": 1351,
    "ịp</w>": 1352,
    "fan</w>": 1353,
    "art</w>": 1354,
    "vẽ</w>": 1355,
    "youtube</w>": 1356,
    "tok</w>": 1357,
    "truyền</w>": 1358,
    "phiêu</w>": 1359,
    "lưu</w>": 1360,
    "truy": 1361,
    "ện</w>": 1362,
    "ấu</w>": 1363,
    "cre": 1364,
    "ator</w>": 1365,
    "nam</w>": 1366,
    "en": 1367,
    "u</w>": 1368,
    "dữ</w>": 1369,
    "thoát</w>": 1370,
    "seed</w>": 1371,
    "ã</w>": 1372,
    "khiển</w>": 1373,
    "phím</w>": 1374,
    "sti": 1375,
    "nhảy</w>": 1376,
    "nút</w>": 1377,
    "space": 1378,
    "bar</w>": 1379,
    "ou": 1380,
    "ble</w>": 1381,
    "tap</w>": 1382,
    "inventory</w>": 1383,
    "e</w>": 1384,
    "mẫu</w>": 1385,
    "wiki</w>": 1386,
    "po": 1387,
    "int</w>": 1388,
    "vuốt</w>": 1389,
    "chuột</w>": 1390,
    "li": 1391,
    "bột</w>": 1392,
    "úc</w>": 1393,
    "button</w>": 1394,
    "p": 1395,
    "re": 1396,
    "su": 1397,
    "late</w>": 1398,
    "lever</w>": 1399,
    "thái</w>": 1400,
    "pvp</w>": 1401,
    "ngẫu</w>": 1402,
    "diệt</w>": 1403,
    "ỗ": 1404,
    "golem</w>": 1405,
    "iron</w>": 1406,
    "ù": 1407,
    "bí</w>": 1408,
    "ngô</w>": 1409,
    "item</w>": 1410,
    "nhặt</w>": 1411,
    "guild</w>": 1412,
    "đội</w>": 1413,
    "le": 1414,
    "ader</w>": 1415,
    "quy": 1416,
    "ền</w>": 1417,
    "kick</w>": 1418,
    "admin</w>": 1419,
    "report</w>": 1420,
    "vi</w>": 1421,
    "phạ": 1422,
    "hack</w>": 1423,
    "vi": 1424,
    "fi": 1425,
    "le</w>": 1426,
    "ap": 1427,
    "ma": 1428,
    "ware</w>": 1429,
    "fanpage</w>": 1430,
    "ả</w>": 1431,
    "bac": 1432,
    "up</w>": 1433,
    "dạ": 1434,
    "g</w>": 1435,
    "pc</w>": 1436,
    "phiên</w>": 1437,
    "en</w>": 1438,
    "rèn</w>": 1439,
    "triển</w>": 1440,
    "te": 1441,
    "wor": 1442,
    "thiệu</w>": 1443,
    "niệm</w>": 1444,
    "ực</w>": 1445,
    "p</w>": 1446,
    "lũy</w>": 1447,
    "í": 1448,
    "mẹo</w>": 1449,
    "xp</w>": 1450,
    "level</w>": 1451,
    "khóa</w>": 1452,
    "em</w>": 1453,
    "1": 1454,
    "8": 1455,
    "lus</w>": 1456,
    "chung</w>": 1457,
    "tôi</w>": 1458,
    "ừng</w>": 1459,
    "ưa</w>": 1460,
    "niềm</w>": 1461,
    "ú</w>": 1462,
    "gh": 1463,
    "stre": 1464,
    "er</w>": 1465,
    "youtu": 1466,
    "giả</w>": 1467,
    "am</w>": 1468,
    "thon</w>": 1469,
    "cr": 1470,
    "ch</w>": 1471,
    "online</w>": 1472,
    "co": 1473,
    "de": 1474,
    "ademy</w>": 1475,
    "thuyết</w>": 1476,
    "lựa</w>": 1477,
    "tu": 1478,
    "can": 1479,
    "ad": 1480,
    "obe</w>": 1481,
    "ter</w>": 1482,
    "khiếu</w>": 1483,
    "đạt</w>": 1484,
    "tháng</w>": 1485,
    "àn</w>": 1486,
    "gu": 1487,
    "itar</w>": 1488,
    "ướng</w>": 1489,
    "muộn</w>": 1490,
    "u": 1491,
    "nghiên</w>": 1492,
    "ẻ": 1493,
    "cuốn</w>": 1494,
    "ốn</w>": 1495,
    "cục</w>": 1496,
    "nhiếp</w>": 1497,
    "ỉnh</w>": 1498,
    "cu": 1499,
    "àng</w>": 1500,
    "ổng</w>": 1501,
    "ồ</w>": 1502,
    "ele": 1503,
    "ate</w>": 1504,
    "linh</w>": 1505,
    "thúc</w>": 1506,
    "đẩy</w>": 1507,
    "ọn</w>": 1508,
    "oro</w>": 1509,
    "cou": 1510,
    "era</w>": 1511,
    "khan</w>": 1512,
    "ac": 1513,
    "ảng</w>": 1514,
    "ễ": 1515,
    "gây</w>": 1516,
    "nghệ</w>": 1517,
    "ẽ</w>": 1518,
    "ái</w>": 1519,
    "ịch</w>": 1520,
    "ượt</w>": 1521,
    "ân</w>": 1522,
    "ị": 1523,
    "ó": 1524,
    "khai</w>": 1525,
    "ác</w>": 1526,
    "khen</w>": 1527,
    "ngợi</w>": 1528,
    "x</w>": 1529,
    "thắng</w>": 1530,
    "thua</w>": 1531,
    "ader": 1532,
    "ship</w>": 1533,
    "dắt</w>": 1534,
    "lã": 1535,
    "đạ": 1536,
    "trở</w>": 1537,
    "ệnh</w>": 1538,
    "ựng</w>": 1539,
    "thu": 1540,
    "ẫn</w>": 1541,
    "họp</w>": 1542,
    "enda</w>": 1543,
    "iểu</w>": 1544,
    "tion</w>": 1545,
    "feedback</w>": 1546,
    "ẫ": 1547,
    "to": 1548,
    "c</w>": 1549,
    "ủ": 1550,
    "nhờ</w>": 1551,
    "đạc</w>": 1552,
    "đo": 1553,
    "sản</w>": 1554,
    "phiếu</w>": 1555,
    "nguy": 1556,
    "ản</w>": 1557,
    "ẹ": 1558,
    "khiến</w>": 1559,
    "ỏng</w>": 1560,
    "ạc</w>": 1561,
    "àu</w>": 1562,
    "ắng</w>": 1563,
    "tiế": 1564,
    "trưa</w>": 1565,
    "ải</w>": 1566,
    "du</w>": 1567,
    "ộn</w>": 1568,
    "è</w>": 1569,
    "đo</w>": 1570,
    "tho": 1571,
    "ừa</w>": 1572,
    "trưởng</w>": 1573,
    "dạy</w>": 1574,
    "ngọc</w>": 1575,
    "ffi": 1576,
    "potion</w>": 1577,
    "gấp</w>": 1578,
    "ẹt</w>": 1579,
    "i</w>": 1580,
    "ro</w>": 1581,
    "dập</w>": 1582,
    "thuyền</w>": 1583,
    "đền</w>": 1584,
    "đáy</w>": 1585,
    "ặn</w>": 1586,
    "ậ": 1587,
    "ạnh</w>": 1588,
    "ậm</w>": 1589,
    "ới</w>": 1590,
    "ạch</w>": 1591,
    "tuộc</w>": 1592,
    "ngựa</w>": 1593,
    "ưỡ": 1594,
    "thuần</w>": 1595,
    "buộc</w>": 1596,
    "lang</w>": 1597,
    "thỏ</w>": 1598,
    "gấu</w>": 1599,
    "ung</w>": 1600,
    "crystals</w>": 1601,
    "crystal</w>": 1602,
    "ột</w>": 1603,
    "portal</w>": 1604,
    "overworld</w>": 1605,
    "blaze</w>": 1606,
    "rod</w>": 1607,
    "ghast</w>": 1608,
    "ar</w>": 1609,
    "wither</w>": 1610,
    "sk": 1611,
    "ull</w>": 1612,
    "phun</w>": 1613,
    "ow": 1614,
    "ba": 1615,
    "ll</w>": 1616,
    "star</w>": 1617,
    "beacon</w>": 1618,
    "buff</w>": 1619,
    "low</w>": 1620,
    "son</w>": 1621,
    "wart</w>": 1622,
    "cob": 1623,
    "stone</w>": 1624,
    "fortress</w>": 1625,
    "la": 1626,
    "for": 1627,
    "soul</w>": 1628,
    "san": 1629,
    "ồn</w>": 1630,
    "piglin</w>": 1631,
    "ư</w>": 1632,
    "ném</w>": 1633,
    "trider</w>": 1634,
    "trongho": 1635,
    "ld</w>": 1636,
    "ender</w>": 1637,
    "pow": 1638,
    "der</w>": 1639,
    "pearl</w>": 1640,
    "enderman</w>": 1641,
    "ăm</w>": 1642,
    "outer</w>": 1643,
    "elytra</w>": 1644,
    "ượn</w>": 1645,
    "ity</w>": 1646,
    "shulker</w>": 1647,
    "box</w>": 1648,
    "đạn</w>": 1649,
    "vita": 1650,
    "úng</w>": 1651,
    "shell</w>": 1652,
    "shar": 1653,
    "spe": 1654,
    "ting</w>": 1655,
    "prote": 1656,
    "unbreaking</w>": 1657,
    "mending</w>": 1658,
    "3": 1659,
    "ĩnh</w>": 1660,
    "ử": 1661,
    "tune</w>": 1662,
    "min": 1663,
    "si": 1664,
    "tou": 1665,
    "netherite</w>": 1666,
    "upgrade</w>": 1667,
    "ingot</w>": 1668,
    "ent</w>": 1669,
    "ri": 1670,
    "smithing</w>": 1671,
    "table</w>": 1672,
    "trident</w>": 1673,
    "drowned</w>": 1674,
    "crossbow</w>": 1675,
    "bow</w>": 1676,
    "ge</w>": 1677,
    "comba": 1678,
    "shi": 1679,
    "eld</w>": 1680,
    "criti": 1681,
    "al</w>": 1682,
    "it</w>": 1683,
    "piston</w>": 1684,
    "observer</w>": 1685,
    "automation</w>": 1686,
    "dispenser</w>": 1687,
    "com": 1688,
    "par": 1689,
    "hopper</w>": 1690,
    "iner</w>": 1691,
    "sort</w>": 1692,
    "mine": 1693,
    "ray</w>": 1694,
    "power</w>": 1695,
    "il</w>": 1696,
    "ờ</w>": 1697,
    "óa</w>": 1698,
    "chuông</w>": 1699,
    "tus</w>": 1700,
    "tri": 1701,
    "wi": 1702,
    "ok</w>": 1703,
    "dropper</w>": 1704,
    "sticky</w>": 1705,
    "ớ": 1706,
    "ye</w>": 1707,
    "len</w>": 1708,
    "chest</w>": 1709,
    "anvil</w>": 1710,
    "õ</w>": 1711,
    "rin": 1712,
    "ding</w>": 1713,
    "à": 1714,
    "afk</w>": 1715,
    "machine</w>": 1716,
    "time</w>": 1717,
    "ê": 1718,
    "tori": 1719,
    "discord</w>": 1720,
    "ụ</w>": 1721,
    "nhắn</w>": 1722,
    "sto": 1723,
    "dow": 1724,
    "ad</w>": 1725,
    "ven": 1726,
    "puzzle</w>": 1727,
    "sho": 1728,
    "mun": 1729,
    "port</w>": 1730,
    "hor": 1731,
    "ror</w>": 1732,
    "skyblock</w>": 1733,
    "dbox</w>": 1734,
    "chal</w>": 1735,
    "thạ": 1736,
    "uyên</w>": 1737,
    "thơ</w>": 1738,
    "lọ": 1739,
    "ằng</w>": 1740,
    "me</w>": 1741,
    "toán</w>": 1742,
    "uôi</w>": 1743,
    "triết</w>": 1744,
    "ấy</w>": 1745,
    "team</w>": 1746,
    "ập</w>": 1747,
    "ều</w>": 1748,
    "ức</w>": 1749,
    "thiểu</w>": 1750,
    "pha</w>": 1751,
    "nhuộm</w>": 1752,
    "lan": 1753,
    "tern</w>": 1754,
    "glowstone</w>": 1755,
    "slab</w>": 1756,
    "ửa</w>": 1757,
    "stair</w>": 1758,
    "pi": 1759,
    "lar</w>": 1760,
    "iển</w>": 1761,
    "ar": 1762,
    "ò": 1763,
    "ỏi</w>": 1764,
    "el": 1765,
    "ping</w>": 1766,
    "ật</w>": 1767,
    "sting</w>": 1768,
    "uptime</w>": 1769,
    "down</w>": 1770,
    "ềm</w>": 1771,
    "ễn</w>": 1772,
    "fair</w>": 1773,
    "che": 1774,
    "kiêu</w>": 1775,
    "êm</w>": 1776,
    "ỏ": 1777,
    "ết</w>": 1778,
    "mite": 1779,
    "dition</w>": 1780,
    "chang": 1781,
    "elo": 1782,
    "group</w>": 1783,
    "è": 1784,
    "ild</w>": 1785,
    "pau": 1786,
    "ạ</w>": 1787,
    "cha</w>": 1788,
    "í</w>": 1789,
    "go</w>": 1790,
    "chiếm</w>": 1791,
    "chat</w>": 1792,
    "0": 1793,
    "2": 1794,
    "củ": 1795,
    "sh": 1796,
    "st</w>": 1797,
    "tai</w>": 1798,
    "shadowing</w>": 1799,
    "che</w>": 1800,
    "trừng</w>": 1801,
    "phạt</w>": 1802,
    "hoại</w>": 1803,
    "nhu</w>": 1804,
    "trào</w>": 1805,
    "ay</w>": 1806,
    "ợ</w>": 1807,
    "ỹ</w>": 1808
  },
  "merges": {
    "('n', '</w>')": 0,
    "('n', 'g')": 1,
    "('i', '</w>')": 2,
    "('ng', '</w>')": 3,
    "('n', 'h')": 4,
    "('t', 'h')": 5,
    "('t', '</w>')": 6,
    "('c', '</w>')": 7,
    "('m', '</w>')": 8,
    "('c', 'h')": 9,
    "('u', '</w>')": 10,
    "('k', 'h')": 11,
    "('ạ', 'n</w>')": 12,
    "('b', 'ạn</w>')": 13,
    "('à', '</w>')": 14,
    "('ơ', 'i</w>')": 15,
    "('nh', '</w>')": 16,
    "('o', '</w>')": 17,
    "('t', 'r')": 18,
    "('y', '</w>')": 19,
    "('|', '</w>')": 20,
    "('a', '</w>')": 21,
    "('ô', 'ng</w>')": 22,
    "('ó', '</w>')": 23,
    "('p', '</w>')": 24,
    "('kh', 'ông</w>')": 25,
    "('c', 'ó</w>')": 26,
    "('ì', '</w>')": 27,
    "('g', 'i')": 28,
    "('v', 'à</w>')": 29,
    "('ê', 'n</w>')": 30,
    "('p', 'h')": 31,
    "('i', 'ệ')": 32,
    "('ì', 'nh</w>')": 33,
    "('q', 'u')": 34,
    "('à', 'o</w>')": 35,
    "('ư', 'ờ')": 36,
    "('l', 'à</w>')": 37,
    "('e', '</w>')": 38,
    "('ch', '</w>')": 39,
    "('ầ', 'n</w>')": 40,
    "('ề', 'u</w>')": 41,
    "('l', 'à')": 42,
    "('i', 'ế')": 43,
    "('ể', '</w>')": 44,
    "('là', 'm</w>')": 45,
    "('ấ', 't</w>')": 46,
    "('i', 'ều</w>')": 47,
    "('ơ', 'n</w>')": 48,
    "('ư', 'ợ')": 49,
    "('m', 'ình</w>')": 50,
    "('m', 'i')": 51,
    "('ớ', 'i</w>')": 52,
    "('h', 'ơn</w>')": 53,
    "('ượ', 'c</w>')": 54,
    "('h', 'o')": 55,
    "('đ', 'ược</w>')": 56,
    "('a', 'y</w>')": 57,
    "('mi', 'n')": 58,
    "('ế', '</w>')": 59,
    "('min', 'i</w>')": 60,
    "('nh', 'iều</w>')": 61,
    "('a', 'n</w>')": 62,
    "('g', 'ì</w>')": 63,
    "('u', 'y')": 64,
    "('ặ', 'c</w>')": 65,
    "('ườ', 'i</w>')": 66,
    "('o', 'ng</w>')": 67,
    "('ọ', 'c</w>')": 68,
    "('ng', 'ười</w>')": 69,
    "('n', 'ào</w>')": 70,
    "('tr', 'ong</w>')": 71,
    "('ạ', 'i</w>')": 72,
    "('á', '</w>')": 73,
    "('c', 'ần</w>')": 74,
    "('kh', 'i</w>')": 75,
    "('nh', 'ư')": 76,
    "('t', 'ố')": 77,
    "('ng', 'h')": 78,
    "('ả', 'i</w>')": 79,
    "('d', '</w>')": 80,
    "('ư', 'ớ')": 81,
    "('ù', 'ng</w>')": 82,
    "('ồ', 'i</w>')": 83,
    "('h', 'ọc</w>')": 84,
    "('ậ', 't</w>')": 85,
    "('đ', 'ồ')": 86,
    "('á', 'ch</w>')": 87,
    "('ho', 'ặc</w>')": 88,
    "('â', 'u</w>')": 89,
    "('e', 'r')": 90,
    "('th', 'ế</w>')": 91,
    "('o', 'r')": 92,
    "('đ', 'ể</w>')": 93,
    "('t', 'i')": 94,
    "('a', 'o</w>')": 95,
    "('a', 'ng</w>')": 96,
    "('ướ', 'c</w>')": 97,
    "('u', 'ố')": 98,
    "('th', 'ì</w>')": 99,
    "('â', 'y</w>')": 100,
    "('ự', '</w>')": 101,
    "('i', 'ể')": 102,
    "('á', 'c</w>')": 103,
    "('a', 'i</w>')": 104,
    "('ch', 'ơi</w>')": 105,
    "('à', 'i</w>')": 106,
    "('er', '</w>')": 107,
    "('ộ', 't</w>')": 108,
    "('ườ', 'ng</w>')": 109,
    "('như', 'ng</w>')": 110,
    "('t', 'ừ')": 111,
    "('tố', 't</w>')": 112,
    "('r', 'ồi</w>')": 113,
    "('l', 'd</w>')": 114,
    "('m', 'e</w>')": 115,
    "('w', 'or')": 116,
    "('í', 'ch</w>')": 117,
    "('g', 'a')": 118,
    "('đồ', '</w>')": 119,
    "('ga', 'me</w>')": 120,
    "('wor', 'ld</w>')": 121,
    "('ộ', 'ng</w>')": 122,
    "('m', 'ột</w>')": 123,
    "('a', 'nh</w>')": 124,
    "('ở', '</w>')": 125,
    "('c', 'ách</w>')": 126,
    "('ả', 'n</w>')": 127,
    "('u', 'ng</w>')": 128,
    "('iế', 't</w>')": 129,
    "('ả', '</w>')": 130,
    "('ế', 't</w>')": 131,
    "('th', 'ể</w>')": 132,
    "('nh', 'ất</w>')": 133,
    "('à', 'n</w>')": 134,
    "('à', 'y</w>')": 135,
    "('v', 'ới</w>')": 136,
    "('ủ', '</w>')": 137,
    "('v', 'ào</w>')": 138,
    "('ch', 'uy')": 139,
    "('í', '</w>')": 140,
    "('ầ', 'u</w>')": 141,
    "('d', 'ùng</w>')": 142,
    "('từ', '</w>')": 143,
    "('ô', 'i</w>')": 144,
    "('ị', '</w>')": 145,
    "('â', 'n</w>')": 146,
    "('ph', 'ải</w>')": 147,
    "('ứ', '</w>')": 148,
    "('l', 'ắ')": 149,
    "('nh', 'à</w>')": 150,
    "('ỉ', '</w>')": 151,
    "('ờ', 'i</w>')": 152,
    "('a', 'u</w>')": 153,
    "('ự', 'c</w>')": 154,
    "('á', 'nh</w>')": 155,
    "('c', 'ũ')": 156,
    "('r', 'a</w>')": 157,
    "('à', 'ng</w>')": 158,
    "('ậ', 'p</w>')": 159,
    "('ỏ', 'i</w>')": 160,
    "('ặ', 't</w>')": 161,
    "('iệ', 'u</w>')": 162,
    "('m', 'ới</w>')": 163,
    "('qu', 'an</w>')": 164,
    "('cũ', 'ng</w>')": 165,
    "('ố', '</w>')": 166,
    "('đ', 'i</w>')": 167,
    "('ứ', 'c</w>')": 168,
    "('ề', '</w>')": 169,
    "('t', 'ự</w>')": 170,
    "('ó', 'i</w>')": 171,
    "('à', 'nh</w>')": 172,
    "('ắ', 't</w>')": 173,
    "('đ', 'ầu</w>')": 174,
    "('h', 'ay</w>')": 175,
    "('t', 'o')": 176,
    "('ỗ', 'i</w>')": 177,
    "('ệ', 'n</w>')": 178,
    "('ă', 'ng</w>')": 179,
    "('ê', 'm</w>')": 180,
    "('ọ', 'ng</w>')": 181,
    "('kh', 'ác</w>')": 182,
    "('ử', '</w>')": 183,
    "('ỏ', '</w>')": 184,
    "('th', 'ường</w>')": 185,
    "('ú', 'p</w>')": 186,
    "('gi', 'úp</w>')": 187,
    "('á', 'i</w>')": 188,
    "('á', 'ng</w>')": 189,
    "('ng', 'ày</w>')": 190,
    "('uy', 'ên</w>')": 191,
    "('ư', 'ơ')": 192,
    "('ươ', 'ng</w>')": 193,
    "('th', 'ích</w>')": 194,
    "('r', 'ất</w>')": 195,
    "('l', 'ại</w>')": 196,
    "('ả', 'm</w>')": 197,
    "('tr', 'ọng</w>')": 198,
    "('k', 'i')": 199,
    "('ă', 'n</w>')": 200,
    "('ì', 'm</w>')": 201,
    "('n', 'ói</w>')": 202,
    "('t', 'ạ')": 203,
    "('ch', 'ỉ</w>')": 204,
    "('ỗ', '</w>')": 205,
    "('t', 'ìm</w>')": 206,
    "('lắ', 'm</w>')": 207,
    "('e', 'm</w>')": 208,
    "('s', 'ao</w>')": 209,
    "('đ', 'ộng</w>')": 210,
    "('e', 'n')": 211,
    "('ố', 'ng</w>')": 212,
    "('m', 'ỗi</w>')": 213,
    "('ấ', 'y</w>')": 214,
    "('th', 'ử</w>')": 215,
    "('tr', 'ước</w>')": 216,
    "('l', 'o')": 217,
    "('b', 'iết</w>')": 218,
    "('ô', 'n</w>')": 219,
    "('n', 'ên</w>')": 220,
    "('ế', 'u</w>')": 221,
    "('ẽ', '</w>')": 222,
    "('iệ', 't</w>')": 223,
    "('e', 'o</w>')": 224,
    "('chuy', 'ện</w>')": 225,
    "('đ', 'âu</w>')": 226,
    "('đ', 'ó</w>')": 227,
    "('b', 'ản</w>')": 228,
    "('h', 'a')": 229,
    "('ng', 'uyên</w>')": 230,
    "('b', 'ị</w>')": 231,
    "('v', 'u')": 232,
    "('ê', 'u</w>')": 233,
    "('s', '</w>')": 234,
    "('đ', 'ặt</w>')": 235,
    "('ứ', 'ng</w>')": 236,
    "('iể', 'm</w>')": 237,
    "('ú', 'c</w>')": 238,
    "('x', 'ây</w>')": 239,
    "('ụ', 'c</w>')": 240,
    "('s', 'ẽ</w>')": 241,
    "('h', 'ỏi</w>')": 242,
    "('vu', 'i</w>')": 243,
    "('ừ', 'ng</w>')": 244,
    "('ậ', 'n</w>')": 245,
    "('k', '</w>')": 246,
    "('v', 'ì</w>')": 247,
    "('tạ', 'o</w>')": 248,
    "('c', 'ông</w>')": 249,
    "('n', 'ếu</w>')": 250,
    "('i', 'ên</w>')": 251,
    "('ý', '</w>')": 252,
    "('c', 'ủ')": 253,
    "('củ', 'a</w>')": 254,
    "('m', 'ạ')": 255,
    "('ngh', 'e</w>')": 256,
    "('ằ', 'ng</w>')": 257,
    "('qu', 'á</w>')": 258,
    "('í', 'nh</w>')": 259,
    "('uố', 'n</w>')": 260,
    "('m', 'à</w>')": 261,
    "('th', 'ật</w>')": 262,
    "('á', 'p</w>')": 263,
    "('c', 'ảm</w>')": 264,
    "('á', 't</w>')": 265,
    "('o', 'n</w>')": 266,
    "('v', 'ật</w>')": 267,
    "('v', 'ề</w>')": 268,
    "('m', 'uốn</w>')": 269,
    "('tr', 'ên</w>')": 270,
    "('v', 'iệ')": 271,
    "('việ', 'c</w>')": 272,
    "('th', 'ôi</w>')": 273,
    "('b', 'o')": 274,
    "('s', 'áng</w>')": 275,
    "('s', 's</w>')": 276,
    "('g', 'ỗ</w>')": 277,
    "('đ', 'ừng</w>')": 278,
    "('ha', 'ha</w>')": 279,
    "('th', 'ứ</w>')": 280,
    "('ẫ', 'n</w>')": 281,
    "('ẻ', '</w>')": 282,
    "('ổ', 'i</w>')": 283,
    "('ớ', '</w>')": 284,
    "('đ', 'ủ</w>')": 285,
    "('th', 'eo</w>')": 286,
    "('ộ', '</w>')": 287,
    "('ì', 'n</w>')": 288,
    "('đ', 'iều</w>')": 289,
    "('ò', '</w>')": 290,
    "('l', 'u')": 291,
    "('nh', 'ớ</w>')": 292,
    "('ề', 'n</w>')": 293,
    "('n', 'ước</w>')": 294,
    "('x', 'em</w>')": 295,
    "('b', 'iệt</w>')": 296,
    "('kh', 'ó</w>')": 297,
    "('th', 'êm</w>')": 298,
    "('nh', 'ìn</w>')": 299,
    "('ti', 'n</w>')": 300,
    "('b', 'ằng</w>')": 301,
    "('ụ', '</w>')": 302,
    "('s', 'ống</w>')": 303,
    "('ộ', 'c</w>')": 304,
    "('ấ', 'u</w>')": 305,
    "('b', 'u')": 306,
    "('ù', '</w>')": 307,
    "('th', 'ấy</w>')": 308,
    "('ệ', '</w>')": 309,
    "('a', 'r')": 310,
    "('nh', 'ỏ</w>')": 311,
    "('ả', 'o</w>')": 312,
    "('n', 'ăng</w>')": 313,
    "('đ', 'ặc</w>')": 314,
    "('ấ', 'n</w>')": 315,
    "('ò', 'n</w>')": 316,
    "('ơ', '</w>')": 317,
    "('ờ', '</w>')": 318,
    "('đ', 'ánh</w>')": 319,
    "('đ', 'á</w>')": 320,
    "('c', 'k</w>')": 321,
    "('ử', 'a</w>')": 322,
    "('ế', 'n</w>')": 323,
    "('h', 'iệu</w>')": 324,
    "('ợ', 'p</w>')": 325,
    "('th', 'ành</w>')": 326,
    "('c', 'r')": 327,
    "('t', 'ài</w>')": 328,
    "('đ', 'ến</w>')": 329,
    "('h', 'ợp</w>')": 330,
    "('á', 'm</w>')": 331,
    "('như', '</w>')": 332,
    "('s', 'ự</w>')": 333,
    "('t', 'ập</w>')": 334,
    "('v', 'er</w>')": 335,
    "('th', 'ân</w>')": 336,
    "('s', 'au</w>')": 337,
    "('ẹ', 'p</w>')": 338,
    "('đ', 'ị')": 339,
    "('l', 'ần</w>')": 340,
    "('đ', 'ẹp</w>')": 341,
    "('l', 'iệu</w>')": 342,
    "('th', 'ời</w>')": 343,
    "('tr', 'í</w>')": 344,
    "('lu', 'ôn</w>')": 345,
    "('bo', 'ss</w>')": 346,
    "('qu', 'ả</w>')": 347,
    "('er', 'ver</w>')": 348,
    "('s', 'erver</w>')": 349,
    "('th', 'ực</w>')": 350,
    "('b', 'ắt</w>')": 351,
    "('uố', 'c</w>')": 352,
    "('ễ', '</w>')": 353,
    "('iệ', 'm</w>')": 354,
    "('c', 'òn</w>')": 355,
    "('mạ', 'nh</w>')": 356,
    "('n', 'e')": 357,
    "('k', 'ết</w>')": 358,
    "('đồ', 'ng</w>')": 359,
    "('đ', 'iểm</w>')": 360,
    "('c', 'âu</w>')": 361,
    "('c', 'ơ</w>')": 362,
    "('l', 'ớ')": 363,
    "('ồ', 'n</w>')": 364,
    "('b', 'a</w>')": 365,
    "('ỹ', '</w>')": 366,
    "('tr', 'ang</w>')": 367,
    "('iể', 'u</w>')": 368,
    "('ố', 'i</w>')": 369,
    "('u', 'ộc</w>')": 370,
    "('c', 'ùng</w>')": 371,
    "('ò', 'ng</w>')": 372,
    "('ng', 'o')": 373,
    "('k', 'ỹ</w>')": 374,
    "('c', 'ứ</w>')": 375,
    "('ngh', 'ĩ')": 376,
    "('ắ', 'n</w>')": 377,
    "('è', '</w>')": 378,
    "('ch', 'i')": 379,
    "('ừ', 'a</w>')": 380,
    "('ú', 't</w>')": 381,
    "('b', 'an</w>')": 382,
    "('d', 'ễ</w>')": 383,
    "('ữ', '</w>')": 384,
    "('s', 'ố</w>')": 385,
    "('h', 'iểu</w>')": 386,
    "('c', 'ố</w>')": 387,
    "('đ', 'ào</w>')": 388,
    "('á', 'n</w>')": 389,
    "('gi', 'an</w>')": 390,
    "('đ', 'ây</w>')": 391,
    "('gi', 'ới</w>')": 392,
    "('lớ', 'n</w>')": 393,
    "('ộ', 'i</w>')": 394,
    "('gi', 'ải</w>')": 395,
    "('đ', 'ang</w>')": 396,
    "('ú', '</w>')": 397,
    "('h', 'ồi</w>')": 398,
    "('ne', 'th')": 399,
    "('c', 'ộng</w>')": 400,
    "('g', 'h')": 401,
    "('é', '</w>')": 402,
    "('a', 'f')": 403,
    "('qu', 'ái</w>')": 404,
    "('l', 'ên</w>')": 405,
    "('c', 'ả</w>')": 406,
    "('to', 'àn</w>')": 407,
    "('th', 'ức</w>')": 408,
    "('tr', 'ung</w>')": 409,
    "('h', 'ết</w>')": 410,
    "('g', 'ần</w>')": 411,
    "('đ', 'ều</w>')": 412,
    "('b', 'è</w>')": 413,
    "('tiế', 'p</w>')": 414,
    "('ph', 'á</w>')": 415,
    "('ch', 'ế</w>')": 416,
    "('ẹ', '</w>')": 417,
    "('ă', 'm</w>')": 418,
    "('ữ', 'ng</w>')": 419,
    "('ng', 'ủ</w>')": 420,
    "('ngo', 'ài</w>')": 421,
    "('th', 'iết</w>')": 422,
    "('s', 'p')": 423,
    "('ar', 'm</w>')": 424,
    "('v', 'ừa</w>')": 425,
    "('b', 'ao</w>')": 426,
    "('m', 'á')": 427,
    "('ho', 'ạ')": 428,
    "('đ', 'ộ</w>')": 429,
    "('ở', 'ng</w>')": 430,
    "('ư', 'ởng</w>')": 431,
    "('gi', 'ờ</w>')": 432,
    "('ọ', 'i</w>')": 433,
    "('ch', 'ính</w>')": 434,
    "('ho', 'àn</w>')": 435,
    "('đị', 'nh</w>')": 436,
    "('ể', 'n</w>')": 437,
    "('l', 'a')": 438,
    "('tiế', 'ng</w>')": 439,
    "('n', 't</w>')": 440,
    "('f', 'arm</w>')": 441,
    "('ã', '</w>')": 442,
    "('s', 'ức</w>')": 443,
    "('chi', 'a</w>')": 444,
    "('ú', 'ng</w>')": 445,
    "('c', 'ây</w>')": 446,
    "('af', 't</w>')": 447,
    "('cr', 'aft</w>')": 448,
    "('ấ', 'p</w>')": 449,
    "('lo', 'ại</w>')": 450,
    "('b', 'ảo</w>')": 451,
    "('s', 'i')": 452,
    "('ti', 'êu</w>')": 453,
    "('en', 'cha')": 454,
    "('encha', 'nt</w>')": 455,
    "('â', 'm</w>')": 456,
    "('ồ', 'ng</w>')": 457,
    "('th', 'ông</w>')": 458,
    "('nh', 'ận</w>')": 459,
    "('l', 'úc</w>')": 460,
    "('lo', 'ck</w>')": 461,
    "('b', 'lock</w>')": 462,
    "('ổ', '</w>')": 463,
    "('b', 'ình</w>')": 464,
    "('l', '</w>')": 465,
    "('h', 'ình</w>')": 466,
    "('h', 'ành</w>')": 467,
    "('v', 'i')": 468,
    "('t', 'u')": 469,
    "('nh', 'ững</w>')": 470,
    "('b', 'àn</w>')": 471,
    "('chuy', 'ển</w>')": 472,
    "('r', 'o')": 473,
    "('ọ', 'n</w>')": 474,
    "('ợ', '</w>')": 475,
    "('qu', 'a</w>')": 476,
    "('ê', 'ng</w>')": 477,
    "('r', 'i')": 478,
    "('ư', '</w>')": 479,
    "('lắ', 'ng</w>')": 480,
    "('t', 'ên</w>')": 481,
    "('đ', 'ôi</w>')": 482,
    "('c', 'uộc</w>')": 483,
    "('d', 'ù</w>')": 484,
    "('l', 'âu</w>')": 485,
    "('a', 'd')": 486,
    "('x', 'a</w>')": 487,
    "('m', 'ất</w>')": 488,
    "('đ', 'ổi</w>')": 489,
    "('ph', 'át</w>')": 490,
    "('ô', 'm</w>')": 491,
    "('ậ', 'y</w>')": 492,
    "('m', 'ọi</w>')": 493,
    "('v', 'ị</w>')": 494,
    "('í', 't</w>')": 495,
    "('ắ', 'c</w>')": 496,
    "('l', 'i')": 497,
    "('t', 'ù')": 498,
    "('tù', 'y</w>')": 499,
    "('ẩ', 'n</w>')": 500,
    "('neth', 'er</w>')": 501,
    "('m', 'ục</w>')": 502,
    "('l', 'ý</w>')": 503,
    "('d', 'ung</w>')": 504,
    "('h', 'ôm</w>')": 505,
    "('n', 'ày</w>')": 506,
    "('ẳ', 'ng</w>')": 507,
    "('ướ', 'ng</w>')": 508,
    "('ặ', 'p</w>')": 509,
    "('b', 'ỏ</w>')": 510,
    "('kh', 'ám</w>')": 511,
    "('đ', 'êm</w>')": 512,
    "('qu', 'anh</w>')": 513,
    "('c', 'ao</w>')": 514,
    "('ri', 'êng</w>')": 515,
    "('ch', 'ọn</w>')": 516,
    "('s', 'ách</w>')": 517,
    "('h', 'ọ')": 518,
    "('õ', '</w>')": 519,
    "('ả', 'nh</w>')": 520,
    "('h', 'ướng</w>')": 521,
    "('s', 'ẻ</w>')": 522,
    "('ổ', 'n</w>')": 523,
    "('kiế', 'm</w>')": 524,
    "('đ', 'uốc</w>')": 525,
    "('b', 'ên</w>')": 526,
    "('s', 'âu</w>')": 527,
    "('ô', '</w>')": 528,
    "('á', 'o</w>')": 529,
    "('m', 'a')": 530,
    "('h', 'iểm</w>')": 531,
    "('h', 'àng</w>')": 532,
    "('t', 'âm</w>')": 533,
    "('d', 'i')": 534,
    "('k', 'ể</w>')": 535,
    "('c', 'on</w>')": 536,
    "('gi', 'a</w>')": 537,
    "('ki', 'm</w>')": 538,
    "('má', 'u</w>')": 539,
    "('b', 'ước</w>')": 540,
    "('đ', 'ọc</w>')": 541,
    "('sp', 'a')": 542,
    "('đ', 'ã</w>')": 543,
    "('r', 'õ</w>')": 544,
    "('ê', '</w>')": 545,
    "('ữ', 'a</w>')": 546,
    "('m', 'ở</w>')": 547,
    "('v', 'ùng</w>')": 548,
    "('ng', 'uy</w>')": 549,
    "('đ', 'ề</w>')": 550,
    "('đ', 'ơn</w>')": 551,
    "('tr', 'ánh</w>')": 552,
    "('m', 'ẹ</w>')": 553,
    "('a', 'm</w>')": 554,
    "('n', 'ay</w>')": 555,
    "('l', 'ời</w>')": 556,
    "('th', 'ú</w>')": 557,
    "('ư', 'u</w>')": 558,
    "('tr', 'ình</w>')": 559,
    "('r', 'e')": 560,
    "('ngh', 'ỉ</w>')": 561,
    "('ngh', 'iệm</w>')": 562,
    "('t', 'ế</w>')": 563,
    "('th', 'ẳng</w>')": 564,
    "('đ', 'ất</w>')": 565,
    "('đ', 'úng</w>')": 566,
    "('ư', 'a</w>')": 567,
    "('ắ', 'ng</w>')": 568,
    "('ũ', '</w>')": 569,
    "('l', 'e')": 570,
    "('gi', 'ỏi</w>')": 571,
    "('spa', 'w')": 572,
    "('ph', 'ù</w>')": 573,
    "('g', 'ặp</w>')": 574,
    "('đ', 'iện</w>')": 575,
    "('d', 'ưới</w>')": 576,
    "('v', 'àng</w>')": 577,
    "('c', 'ương</w>')": 578,
    "('x', 'ung</w>')": 579,
    "('ch', 'u')": 580,
    "('si', 'nh</w>')": 581,
    "('d', 'ụ')": 582,
    "('dụ', 'ng</w>')": 583,
    "('ạ', 'c</w>')": 584,
    "('nh', 'ật</w>')": 585,
    "('ph', 'ần</w>')": 586,
    "('à', 'u</w>')": 587,
    "('è', 'n</w>')": 588,
    "('quy', 'ết</w>')": 589,
    "('ị', 'n</w>')": 590,
    "('x', 'ịn</w>')": 591,
    "('th', 'iện</w>')": 592,
    "('gi', 'áp</w>')": 593,
    "('ế', 'p</w>')": 594,
    "('gi', 'á</w>')": 595,
    "('v', 'ẫn</w>')": 596,
    "('h', 'ạn</w>')": 597,
    "('h', 'iện</w>')": 598,
    "('hoạ', 't</w>')": 599,
    "('m', 'àu</w>')": 600,
    "('v', 'ậy</w>')": 601,
    "('tr', 'ò</w>')": 602,
    "('ỏ', 'e</w>')": 603,
    "('kh', 'ỏe</w>')": 604,
    "('nghĩ', '</w>')": 605,
    "('c', 'ực</w>')": 606,
    "('đ', 'ấu</w>')": 607,
    "('d', 'ần</w>')": 608,
    "('c', 'ửa</w>')": 609,
    "('s', 'ắt</w>')": 610,
    "('đ', 'ường</w>')": 611,
    "('t', 'ăng</w>')": 612,
    "('ph', 'òng</w>')": 613,
    "('t', 'ục</w>')": 614,
    "('h', 'ệ</w>')": 615,
    "('gi', 'ữ</w>')": 616,
    "('o', 'b')": 617,
    "('tr', 'ả</w>')": 618,
    "('d', 'ẫn</w>')": 619,
    "('i', 'êu</w>')": 620,
    "('nghĩ', 'a</w>')": 621,
    "('ễ', 'n</w>')": 622,
    "('ph', 'í</w>')": 623,
    "('t', 'ính</w>')": 624,
    "('a', 'n')": 625,
    "('ẩ', 'm</w>')": 626,
    "('b', 'ộ</w>')": 627,
    "('họ', '</w>')": 628,
    "('đ', 'èn</w>')": 629,
    "('d', 'o</w>')": 630,
    "('th', 'u')": 631,
    "('s', 'ò</w>')": 632,
    "('ượ', 'ng</w>')": 633,
    "('ự', 'ng</w>')": 634,
    "('t', 'ường</w>')": 635,
    "('x', 'uống</w>')": 636,
    "('ầ', 'm</w>')": 637,
    "('v', 'ũ</w>')": 638,
    "('v', 'í</w>')": 639,
    "('t', 'ư</w>')": 640,
    "('t', 'a')": 641,
    "('ệ', 't</w>')": 642,
    "('v', 'ấn</w>')": 643,
    "('ki', 'nh</w>')": 644,
    "('c', 'ái</w>')": 645,
    "('ti', 'on</w>')": 646,
    "('p', 'o')": 647,
    "('p', 't</w>')": 648,
    "('d', 'ài</w>')": 649,
    "('n', 'ung</w>')": 650,
    "('ph', 'ẩm</w>')": 651,
    "('kh', 'í</w>')": 652,
    "('d', 'ro')": 653,
    "('l', 'ực</w>')": 654,
    "('ti', 'ền</w>')": 655,
    "('r', 'ương</w>')": 656,
    "('g', 'pt</w>')": 657,
    "('nh', 'iên</w>')": 658,
    "('bu', 'ồn</w>')": 659,
    "('mi', 'ễn</w>')": 660,
    "('l', 'ấy</w>')": 661,
    "('ắ', 'p</w>')": 662,
    "('í', 'n</w>')": 663,
    "('gi', 'ảm</w>')": 664,
    "('l', 'ửa</w>')": 665,
    "('h', 'ạ')": 666,
    "('đ', 'ứng</w>')": 667,
    "('m', 'u')": 668,
    "('k', 'ế</w>')": 669,
    "('c', 'ập</w>')": 670,
    "('gi', 'ác</w>')": 671,
    "('b', 'ài</w>')": 672,
    "('ự', 'a</w>')": 673,
    "('ph', 'út</w>')": 674,
    "('o', 'u')": 675,
    "('i', 't')": 676,
    "('s', 'ẵ')": 677,
    "('sẵ', 'n</w>')": 678,
    "('đ', 'ời</w>')": 679,
    "('é', 't</w>')": 680,
    "('nh', 'é</w>')": 681,
    "('r', 'ộng</w>')": 682,
    "('x', 'ếp</w>')": 683,
    "('y', 'êu</w>')": 684,
    "('ma', 'p</w>')": 685,
    "('qu', 'en</w>')": 686,
    "('gi', 'ản</w>')": 687,
    "('t', 'ấn</w>')": 688,
    "('nh', 'ó')": 689,
    "('nhó', 'm</w>')": 690,
    "('đ', 'áng</w>')": 691,
    "('r', 'àng</w>')": 692,
    "('p', 'i')": 693,
    "('nh', 'iêu</w>')": 694,
    "('bu', 'ổi</w>')": 695,
    "('d', 'ựng</w>')": 696,
    "('l', 'òng</w>')": 697,
    "('s', 'o</w>')": 698,
    "('v', 'ệ</w>')": 699,
    "('v', 'ài</w>')": 700,
    "('nh', 'iệm</w>')": 701,
    "('x', 'ong</w>')": 702,
    "('ph', 'ản</w>')": 703,
    "('n', 'ội</w>')": 704,
    "('b', 'ẫ')": 705,
    "('bẫ', 'y</w>')": 706,
    "('n', 'ăm</w>')": 707,
    "('li', 'ne</w>')": 708,
    "('ổ', 'ng</w>')": 709,
    "('ỷ', '</w>')": 710,
    "('ứ', 'a</w>')": 711,
    "('gh', 'é</w>')": 712,
    "('s', 'ai</w>')": 713,
    "('ch', 'ưa</w>')": 714,
    "('c', 'àng</w>')": 715,
    "('ố', 'n</w>')": 716,
    "('s', 'át</w>')": 717,
    "('th', 'ương</w>')": 718,
    "('chu', 'ẩn</w>')": 719,
    "('ó', 'a</w>')": 720,
    "('tr', 'ì</w>')": 721,
    "('c', 'ầu</w>')": 722,
    "('c', 'ác</w>')": 723,
    "('u', 'ất</w>')": 724,
    "('th', 'ất</w>')": 725,
    "('x', 'úc</w>')": 726,
    "('h', 'ưởng</w>')": 727,
    "('h', 'ỗ</w>')": 728,
    "('tr', 'ợ</w>')": 729,
    "('b', 'áo</w>')": 730,
    "('it', 'em</w>')": 731,
    "('l', 'ượng</w>')": 732,
    "('ch', 'út</w>')": 733,
    "('g', 'o')": 734,
    "('g', 'ắng</w>')": 735,
    "('é', 'o</w>')": 736,
    "('ậ', 'm</w>')": 737,
    "('ợ', 'i</w>')": 738,
    "('t', 'ương</w>')": 739,
    "('b', 'ay</w>')": 740,
    "('ị', 'ch</w>')": 741,
    "('mu', 'a</w>')": 742,
    "('nh', 'ập</w>')": 743,
    "('ó', 'ng</w>')": 744,
    "('c', 'ấp</w>')": 745,
    "('m', 'ệt</w>')": 746,
    "('i', 'm</w>')": 747,
    "('l', 'ập</w>')": 748,
    "('f', 'f')": 749,
    "('c', 'o')": 750,
    "('t', 'ình</w>')": 751,
    "('c', 'á</w>')": 752,
    "('n', 'ấu</w>')": 753,
    "('b', 'ắn</w>')": 754,
    "('é', 'p</w>')": 755,
    "('t', 'ác</w>')": 756,
    "('u', 'ôi</w>')": 757,
    "('c', 'ụ</w>')": 758,
    "('en', 'd</w>')": 759,
    "('la', 'g')": 760,
    "('y', 'ên</w>')": 761,
    "('đị', 'a</w>')": 762,
    "('s', 'to')": 763,
    "('ó', 'c</w>')": 764,
    "('ph', 'í')": 765,
    "('s', 'ợ</w>')": 766,
    "('ch', 'ân</w>')": 767,
    "('d', 'uy</w>')": 768,
    "('c', 'uối</w>')": 769,
    "('a', 'p')": 770,
    "('ad', 'e</w>')": 771,
    "('ch', 'ứa</w>')": 772,
    "('e', 'e')": 773,
    "('en', 'd')": 774,
    "('s', 'àng</w>')": 775,
    "('tr', 'ồng</w>')": 776,
    "('ch', 'ặt</w>')": 777,
    "('n', 'ơi</w>')": 778,
    "('h', 'iế')": 779,
    "('hiế', 'm</w>')": 780,
    "('m', 'ì</w>')": 781,
    "('chạ', 'y</w>')": 782,
    "('ặ', 'ng</w>')": 783,
    "('hoạ', 'ch</w>')": 784,
    "('n', 'uôi</w>')": 785,
    "('ĩ', 'nh</w>')": 786,
    "('dro', 'p</w>')": 787,
    "('ỡ', '</w>')": 788,
    "('v', 'ụ</w>')": 789,
    "('t', 'ắt</w>')": 790,
    "('m', 'àn</w>')": 791,
    "('ả', 'ng</w>')": 792,
    "('x', 'uất</w>')": 793,
    "('spaw', 'n</w>')": 794,
    "('đ', 'ại</w>')": 795,
    "('ả', 'y</w>')": 796,
    "('t', 'ích</w>')": 797,
    "('ph', 'ân</w>')": 798,
    "('z', 'e</w>')": 799,
    "('m', 'ười</w>')": 800,
    "('th', 'i</w>')": 801,
    "('ch', 'ứng</w>')": 802,
    "('k', 'ỷ</w>')": 803,
    "('ch', 'ào</w>')": 804,
    "('t', 'ám</w>')": 805,
    "('m', 'ật</w>')": 806,
    "('kh', 'á</w>')": 807,
    "('h', 'ữ')": 808,
    "('hữ', 'u</w>')": 809,
    "('ấ', 'm</w>')": 810,
    "('ch', 'ắc</w>')": 811,
    "('ầ', 'ng</w>')": 812,
    "('t', 'ầng</w>')": 813,
    "('ã', 'i</w>')": 814,
    "('ch', 'ậm</w>')": 815,
    "('c', 'ung</w>')": 816,
    "('d', 'ự</w>')": 817,
    "('u', 'ồn</w>')": 818,
    "('ng', 'uồn</w>')": 819,
    "('t', 'ồn</w>')": 820,
    "('c', 'ân</w>')": 821,
    "('đ', 'ăng</w>')": 822,
    "('ch', 'ủ</w>')": 823,
    "('mạ', 'ng</w>')": 824,
    "('sto', 'ne</w>')": 825,
    "('tr', 'ải</w>')": 826,
    "('đ', 'am</w>')": 827,
    "('m', 'ê</w>')": 828,
    "('tr', 'ường</w>')": 829,
    "('b', 'e</w>')": 830,
    "('ap', 'p</w>')": 831,
    "('l', 'ưu</w>')": 832,
    "('v', 'p</w>')": 833,
    "('p', 'vp</w>')": 834,
    "('po', 'tion</w>')": 835,
    "('ng', 'ựa</w>')": 836,
    "('la', 'ze</w>')": 837,
    "('b', 'laze</w>')": 838,
    "('ỉ', 'nh</w>')": 839,
    "('ầ', 'y</w>')": 840,
    "('k', 'ỳ')": 841,
    "('kỳ', '</w>')": 842,
    "('n', 'ền</w>')": 843,
    "('l', 'ò</w>')": 844,
    "('t', 'e')": 845,
    "('qu', 'ên</w>')": 846,
    "('tr', 'ời</w>')": 847,
    "('nh', 'ân</w>')": 848,
    "('x', 'uyên</w>')": 849,
    "('th', 'ẻ</w>')": 850,
    "('tu', 'ần</w>')": 851,
    "('h', 'ội</w>')": 852,
    "('n', 'ối</w>')": 853,
    "('s', 'ửa</w>')": 854,
    "('x', 'ác</w>')": 855,
    "('to', 'ang</w>')": 856,
    "('p', 'er</w>')": 857,
    "('nh', 'ẹ</w>')": 858,
    "('ng', 'ơi</w>')": 859,
    "('s', 'ánh</w>')": 860,
    "('t', 'ưởng</w>')": 861,
    "('m', 'ươi</w>')": 862,
    "('ph', 'áp</w>')": 863,
    "('ng', 'ữ</w>')": 864,
    "('ã', 'n</w>')": 865,
    "('tr', 'ade</w>')": 866,
    "('spaw', 'ner</w>')": 867,
    "('l', 'lag')": 868,
    "('vi', 'llag')": 869,
    "('villag', 'er</w>')": 870,
    "('ú', 'i</w>')": 871,
    "('k', 'ính</w>')": 872,
    "('b', 'ốn</w>')": 873,
    "('ũ', 'i</w>')": 874,
    "('m', 'ũi</w>')": 875,
    "('ố', 'c</w>')": 876,
    "('b', '</w>')": 877,
    "('l', 'ỗi</w>')": 878,
    "('kho', 'ản</w>')": 879,
    "('â', 'ng</w>')": 880,
    "('n', 'âng</w>')": 881,
    "('đ', 'au</w>')": 882,
    "('b', 'ại</w>')": 883,
    "('õ', 'i</w>')": 884,
    "('ph', 'im</w>')": 885,
    "('b', 'ất</w>')": 886,
    "('t', 'ải</w>')": 887,
    "('ù', 'a</w>')": 888,
    "('đ', 'ố</w>')": 889,
    "('c', 'ổng</w>')": 890,
    "('r', 'ồng</w>')": 891,
    "('y', 'ou')": 892,
    "('you', 'tu')": 893,
    "('s', 'h')": 894,
    "('đ', 'ầy</w>')": 895,
    "('n', 'ữa</w>')": 896,
    "('v', 'ẻ</w>')": 897,
    "('s', 'ớ')": 898,
    "('sớ', 'm</w>')": 899,
    "('c', 'uốc</w>')": 900,
    "('nh', 'ẫn</w>')": 901,
    "('kh', 'ối</w>')": 902,
    "('ch', 'ị')": 903,
    "('chị', 'u</w>')": 904,
    "('gi', 'ống</w>')": 905,
    "('c', 'ẩn</w>')": 906,
    "('th', 'ận</w>')": 907,
    "('th', 'ách</w>')": 908,
    "('ki', 'n</w>')": 909,
    "('s', 'kin</w>')": 910,
    "('ạ', 'p</w>')": 911,
    "('nh', 'ấn</w>')": 912,
    "('w', 'i')": 913,
    "('ượ', 't</w>')": 914,
    "('a', 'c')": 915,
    "('t', 'ín</w>')": 916,
    "('b', 'ật</w>')": 917,
    "('s', 'k')": 918,
    "('s', 'ắp</w>')": 919,
    "('th', 'ống</w>')": 920,
    "('c', 'ô</w>')": 921,
    "('t', 'ức</w>')": 922,
    "('hạ', 'nh</w>')": 923,
    "('ph', 'úc</w>')": 924,
    "('h', 'ã')": 925,
    "('hã', 'y</w>')": 926,
    "('k', 'éo</w>')": 927,
    "('th', 'ắn</w>')": 928,
    "('é', 'm</w>')": 929,
    "('h', 'ứng</w>')": 930,
    "('ặ', 'n</w>')": 931,
    "('r', 'ằng</w>')": 932,
    "('ch', 'ất</w>')": 933,
    "('s', 'tre')": 934,
    "('th', 'ần</w>')": 935,
    "('đ', 'áp</w>')": 936,
    "('d', 'õi</w>')": 937,
    "('á', 'y</w>')": 938,
    "('th', 'ói</w>')": 939,
    "('c', 'ải</w>')": 940,
    "('youtu', 'be</w>')": 941,
    "('ee', 'd</w>')": 942,
    "('s', 'eed</w>')": 943,
    "('neth', 'erite</w>')": 944,
    "('pi', 'ston</w>')": 945,
    "('e', 'l')": 946,
    "('ch', 'ứ</w>')": 947,
    "('ch', 'ờ</w>')": 948,
    "('h', 'ảo</w>')": 949,
    "('r', 'ì')": 950,
    "('rì', 'u</w>')": 951,
    "('m', 'ặt</w>')": 952,
    "('th', 'ấp</w>')": 953,
    "('b', 'iển</w>')": 954,
    "('l', 'ú')": 955,
    "('lú', 'a</w>')": 956,
    "('gi', 'ữa</w>')": 957,
    "('ch', 'ín</w>')": 958,
    "('ớ', 't</w>')": 959,
    "('th', 'ở</w>')": 960,
    "('qu', 'ý</w>')": 961,
    "('tr', 'anh</w>')": 962,
    "('h', 'ào</w>')": 963,
    "('x', 'ử</w>')": 964,
    "('tr', 'ị</w>')": 965,
    "('qu', 'ay</w>')": 966,
    "('qu', 'ản</w>')": 967,
    "('ngh', 'ề</w>')": 968,
    "('tr', 'ách</w>')": 969,
    "('th', 'ư</w>')": 970,
    "('m', 'ùa</w>')": 971,
    "('vi', 'd')": 972,
    "('vid', 'eo</w>')": 973,
    "('v', 'ực</w>')": 974,
    "('kh', 'ả</w>')": 975,
    "('di', 'an</w>')": 976,
    "('ob', 'si')": 977,
    "('obsi', 'dian</w>')": 978,
    "('luy', 'ện</w>')": 979,
    "('n', 'ó</w>')": 980,
    "('d', 'ạ')": 981,
    "('u', 'p')": 982,
    "('b', 'í</w>')": 983,
    "('x', 'p</w>')": 984,
    "('o', 'n')": 985,
    "('on', 'line</w>')": 986,
    "('end', 'er</w>')": 987,
    "('ó', 'p</w>')": 988,
    "('tho', 'ải</w>')": 989,
    "('đ', 'ình</w>')": 990,
    "('d', 'ậy</w>')": 991,
    "('m', 'ãi</w>')": 992,
    "('s', 'a</w>')": 993,
    "('b', 'ơi</w>')": 994,
    "('d', 'ịch</w>')": 995,
    "('d', 'ấu</w>')": 996,
    "('l', 'ạc</w>')": 997,
    "('đ', 'ộc</w>')": 998,
    "('n', 'ạp</w>')": 999,
    "('đ', 'óng</w>')": 1000,
    "('l', 'ợi</w>')": 1001,
    "('s', 'ổ</w>')": 1002,
    "('gi', 'ường</w>')": 1003,
    "('re', 'd')": 1004,
    "('red', 'stone</w>')": 1005,
    "('ho', 'a</w>')": 1006,
    "('m', 'ắt</w>')": 1007,
    "('đ', 'ổ</w>')": 1008,
    "('t', 'ất</w>')": 1009,
    "('m', 'ối</w>')": 1010,
    "('tr', 'ực</w>')": 1011,
    "('l', 'ăm</w>')": 1012,
    "('đ', 'ặn</w>')": 1013,
    "('x', '</w>')": 1014,
    "('w', '</w>')": 1015,
    "('n', 'ổi</w>')": 1016,
    "('c', 'ứng</w>')": 1017,
    "('th', 'ùng</w>')": 1018,
    "('g', 'ắn</w>')": 1019,
    "('lu', 'ật</w>')": 1020,
    "('thu', 'ật</w>')": 1021,
    "('go', 'lem</w>')": 1022,
    "('kh', 'óa</w>')": 1023,
    "('th', 'áng</w>')": 1024,
    "('s', 'ta')": 1025,
    "('s', 't</w>')": 1026,
    "('bu', 'ff')": 1027,
    "('buff', '</w>')": 1028,
    "('đ', 'ỉnh</w>')": 1029,
    "('gh', 'ét</w>')": 1030,
    "('tạ', 'm</w>')": 1031,
    "('go', 'o')": 1032,
    "('b', 'iến</w>')": 1033,
    "('ồ', '</w>')": 1034,
    "('ạ', 'ch</w>')": 1035,
    "('ch', 'úng</w>')": 1036,
    "('ộ', 'p</w>')": 1037,
    "('t', 'ĩnh</w>')": 1038,
    "('nh', 'ắc</w>')": 1039,
    "('đ', 'ỡ</w>')": 1040,
    "('th', 'ủ</w>')": 1041,
    "('x', 'óa</w>')": 1042,
    "('k', 'ích</w>')": 1043,
    "('m', 'b')": 1044,
    "('n', 'ổ</w>')": 1045,
    "('r', 'ào</w>')": 1046,
    "('ạ', 'nh</w>')": 1047,
    "('ngh', 'i')": 1048,
    "('phí', 'a</w>')": 1049,
    "('gi', 'ao</w>')": 1050,
    "('s', 'uy</w>')": 1051,
    "('ph', 'ương</w>')": 1052,
    "('c', 'ảnh</w>')": 1053,
    "('i', 'ng</w>')": 1054,
    "('ph', 'ục</w>')": 1055,
    "('gi', 'ãn</w>')": 1056,
    "('d', 'a</w>')": 1057,
    "('ã', 'o</w>')": 1058,
    "('n', 'ão</w>')": 1059,
    "('ư', 'ng</w>')": 1060,
    "('stre', 'ss</w>')": 1061,
    "('s', 'á')": 1062,
    "('sá', 'u</w>')": 1063,
    "('ph', 'ức</w>')": 1064,
    "('đ', 'o')": 1065,
    "('b', 'ền</w>')": 1066,
    "('ch', 'áy</w>')": 1067,
    "('ch', 'ấp</w>')": 1068,
    "('u', 'l')": 1069,
    "('phí', 'm</w>')": 1070,
    "('g', 'ây</w>')": 1071,
    "('th', 'ắng</w>')": 1072,
    "('ro', 'd</w>')": 1073,
    "('ệ', 'nh</w>')": 1074,
    "('ở', 'i</w>')": 1075,
    "('d', 'b')": 1076,
    "('tr', 'ú</w>')": 1077,
    "('x', 'ấu</w>')": 1078,
    "('n', 'úi</w>')": 1079,
    "('s', 'ông</w>')": 1080,
    "('m', 'ặc</w>')": 1081,
    "('đ', 'òn</w>')": 1082,
    "('l', 'ông</w>')": 1083,
    "('đ', 'ột</w>')": 1084,
    "('c', 'ài</w>')": 1085,
    "('o', 'k</w>')": 1086,
    "('z', 'o')": 1087,
    "('mb', 'i')": 1088,
    "('mbi', 'e</w>')": 1089,
    "('zo', 'mbie</w>')": 1090,
    "('ng', 'ăn</w>')": 1091,
    "('sk', 'ele')": 1092,
    "('skele', 'ton</w>')": 1093,
    "('cree', 'per</w>')": 1094,
    "('ph', 'ép</w>')": 1095,
    "('x', 'ứng</w>')": 1096,
    "('l', 'ồng</w>')": 1097,
    "('c', 'ạnh</w>')": 1098,
    "('s', 'ang</w>')": 1099,
    "('ch', 'án</w>')": 1100,
    "('h', 'ít</w>')": 1101,
    "('th', 'iệt</w>')": 1102,
    "('tr', 'ân</w>')": 1103,
    "('s', 'o')": 1104,
    "('so', 'át</w>')": 1105,
    "('t', 'ôn</w>')": 1106,
    "('gh', 'i</w>')": 1107,
    "('s', 'ở</w>')": 1108,
    "('ch', 'ú</w>')": 1109,
    "('nghiệ', 'p</w>')": 1110,
    "('ng', 'ành</w>')": 1111,
    "('ấ', 'c</w>')": 1112,
    "('gi', 'ấc</w>')": 1113,
    "('ỏ', 'ng</w>')": 1114,
    "('h', 'ộp</w>')": 1115,
    "('i', 'ền</w>')": 1116,
    "('s', 'u')": 1117,
    "('l', 'ịch</w>')": 1118,
    "('w', 'e')": 1119,
    "('we', 'b</w>')": 1120,
    "('kh', 'u</w>')": 1121,
    "('th', 'ị')": 1122,
    "('thị', 't</w>')": 1123,
    "('m', 'ob</w>')": 1124,
    "('b', 'an')": 1125,
    "('ban', 'ner</w>')": 1126,
    "('y', 'ếu</w>')": 1127,
    "('đ', 'a</w>')": 1128,
    "('ư', 'ỡ')": 1129,
    "('o', 'ff')": 1130,
    "('off', 'line</w>')": 1131,
    "('m', 'ức</w>')": 1132,
    "('đ', 'ền</w>')": 1133,
    "('o', 'w')": 1134,
    "('f', 'or')": 1135,
    "('tri', 'd')": 1136,
    "('en', 's')": 1137,
    "('ens', 'er</w>')": 1138,
    "('sp', 'enser</w>')": 1139,
    "('di', 'spenser</w>')": 1140,
    "('r', '</w>')": 1141,
    "('i', 'r</w>')": 1142,
    "('i', 'n</w>')": 1143,
    "('th', 'ăm</w>')": 1144,
    "('h', 'e')": 1145,
    "('ng', 'ại</w>')": 1146,
    "('g', 'ọi</w>')": 1147,
    "('c', 'ười</w>')": 1148,
    "('d', 'ám</w>')": 1149,
    "('b', 'ệnh</w>')": 1150,
    "('co', 'i</w>')": 1151,
    "('l', 'ẫn</w>')": 1152,
    "('th', 'ập</w>')": 1153,
    "('kh', 'ắp</w>')": 1154,
    "('lớ', 'p</w>')": 1155,
    "('h', 'ồ</w>')": 1156,
    "('c', 'át</w>')": 1157,
    "('b', 'ê</w>')": 1158,
    "('th', 'ả</w>')": 1159,
    "('ạ', '</w>')": 1160,
    "('qu', 'ặng</w>')": 1161,
    "('gh', 'ép</w>')": 1162,
    "('c', 'anh</w>')": 1163,
    "('tr', 'ái</w>')": 1164,
    "('g', 'à</w>')": 1165,
    "('ợ', 'n</w>')": 1166,
    "('l', 'ợn</w>')": 1167,
    "('b', 'ò</w>')": 1168,
    "('por', 't</w>')": 1169,
    "('t', 'ận</w>')": 1170,
    "('đ', 'áo</w>')": 1171,
    "('kh', 'ẩ')": 1172,
    "('khẩ', 'u</w>')": 1173,
    "('họ', 'a</w>')": 1174,
    "('f', 'ac')": 1175,
    "('i', 'l</w>')": 1176,
    "('n', 'é</w>')": 1177,
    "('c', 'ận</w>')": 1178,
    "('x', 'ì</w>')": 1179,
    "('p', 'a')": 1180,
    "('k', 'ệ</w>')": 1181,
    "('đ', 'ài</w>')": 1182,
    "('g', 'óc</w>')": 1183,
    "('nghi', 'êm</w>')": 1184,
    "('x', 'ảy</w>')": 1185,
    "('gi', 'ận</w>')": 1186,
    "('l', 'ầm</w>')": 1187,
    "('đ', 'ích</w>')": 1188,
    "('k', 'ém</w>')": 1189,
    "('kh', 'ăn</w>')": 1190,
    "('x', 'ã</w>')": 1191,
    "('ph', 'án</w>')": 1192,
    "('x', 'ét</w>')": 1193,
    "('t', 'ượng</w>')": 1194,
    "('d', 'e')": 1195,
    "('v', 'ọng</w>')": 1196,
    "('ng', 'ồi</w>')": 1197,
    "('l', 'ưng</w>')": 1198,
    "('v', 'ận</w>')": 1199,
    "('ti', 'nh</w>')": 1200,
    "('ị', 'p</w>')": 1201,
    "('ki', 'a</w>')": 1202,
    "('l', 'l</w>')": 1203,
    "('tuy', 'ết</w>')": 1204,
    "('g', 'le</w>')": 1205,
    "('goo', 'gle</w>')": 1206,
    "('ủ', 'y</w>')": 1207,
    "('nh', 'ện</w>')": 1208,
    "('tr', 'ông</w>')": 1209,
    "('l', 'ừa</w>')": 1210,
    "('đ', 'ảo</w>')": 1211,
    "('tr', 'uy')": 1212,
    "('tho', 'át</w>')": 1213,
    "('s', 'ti')": 1214,
    "('nh', 'ảy</w>')": 1215,
    "('ẫ', 'u</w>')": 1216,
    "('i', 'ron</w>')": 1217,
    "('ph', 'iên</w>')": 1218,
    "('n', 'iệm</w>')": 1219,
    "('t', 'ôi</w>')": 1220,
    "('thuy', 'ết</w>')": 1221,
    "('li', 'nh</w>')": 1222,
    "('tr', 'ưa</w>')": 1223,
    "('th', 'ỏ</w>')": 1224,
    "('el', 'y')": 1225,
    "('ely', 'tra</w>')": 1226,
    "('p', 'per</w>')": 1227,
    "('te', 'am</w>')": 1228,
    "('ch', 'óp</w>')": 1229,
    "('tu', 'ổi</w>')": 1230,
    "('tr', 'ẻ</w>')": 1231,
    "('t', 'ươi</w>')": 1232,
    "('c', 'an')": 1233,
    "('r', 'ừng</w>')": 1234,
    "('ph', 'ổ</w>')": 1235,
    "('s', 'ét</w>')": 1236,
    "('t', 'ông</w>')": 1237,
    "('kh', 'úc</w>')": 1238,
    "('ắ', 'm</w>')": 1239,
    "('d', 'ọc</w>')": 1240,
    "('l', 'ạ</w>')": 1241,
    "('h', 'ầu</w>')": 1242,
    "('t', 'ưới</w>')": 1243,
    "('r', 'ớt</w>')": 1244,
    "('h', 'ơi</w>')": 1245,
    "('ò', 'a</w>')": 1246,
    "('ng', 'ột</w>')": 1247,
    "('ph', 'ẳng</w>')": 1248,
    "('l', 'ã')": 1249,
    "('l', 'ễ</w>')": 1250,
    "('g', 'ử')": 1251,
    "('gử', 'i</w>')": 1252,
    "('d', 'anh</w>')": 1253,
    "('đ', 'ông</w>')": 1254,
    "('b', 'ớt</w>')": 1255,
    "('fac', 'e')": 1256,
    "('face', 'bo')": 1257,
    "('facebo', 'ok</w>')": 1258,
    "('hạ', 'ng</w>')": 1259,
    "('kh', 'iên</w>')": 1260,
    "('d', 'ành</w>')": 1261,
    "('đ', 'ối</w>')": 1262,
    "('v', 'ững</w>')": 1263,
    "('v', 'ườ')": 1264,
    "('vườ', 'n</w>')": 1265,
    "('tr', 'ao</w>')": 1266,
    "('nh', 'ở</w>')": 1267,
    "('m', 'o')": 1268,
    "('ph', 'ụ</w>')": 1269,
    "('t', 'ảng</w>')": 1270,
    "('ạ', 'ng</w>')": 1271,
    "('tr', 'ạng</w>')": 1272,
    "('gi', 'ấy</w>')": 1273,
    "('p', 'e')": 1274,
    "('th', 'iền</w>')": 1275,
    "('b', 'ữa</w>')": 1276,
    "('kho', 'ảng</w>')": 1277,
    "('t', 'úi</w>')": 1278,
    "('re', 'spawn</w>')": 1279,
    "('ứ', 'u</w>')": 1280,
    "('c', 'ứu</w>')": 1281,
    "('t', 'ầm</w>')": 1282,
    "('x', 'anh</w>')": 1283,
    "('ĩ', '</w>')": 1284,
    "('s', 'ĩ</w>')": 1285,
    "('x', 'e</w>')": 1286,
    "('ch', 'ức</w>')": 1287,
    "('c', 'ắt</w>')": 1288,
    "('ch', 'ống</w>')": 1289,
    "('gi', 'ai</w>')": 1290,
    "('đo', 'ạn</w>')": 1291,
    "('d', 'u')": 1292,
    "('e', 'on</w>')": 1293,
    "('du', 'ng')": 1294,
    "('dung', 'eon</w>')": 1295,
    "('ậ', 'c</w>')": 1296,
    "('b', 'ậc</w>')": 1297,
    "('h', 'ố</w>')": 1298,
    "('l', 'ặp</w>')": 1299,
    "('r', 'anh</w>')": 1300,
    "('l', 'ĩnh</w>')": 1301,
    "('m', 'ôn</w>')": 1302,
    "('d', 'ưỡ')": 1303,
    "('dưỡ', 'ng</w>')": 1304,
    "('i', 'n')": 1305,
    "('p', 'lay</w>')": 1306,
    "('f', 'an</w>')": 1307,
    "('ar', 't</w>')": 1308,
    "('ph', 'iêu</w>')": 1309,
    "('b', 'le</w>')": 1310,
    "('wi', 'ki</w>')": 1311,
    "('g', 'u')": 1312,
    "('đ', 'ội</w>')": 1313,
    "('ki', 'ck</w>')": 1314,
    "('ad', 'min</w>')": 1315,
    "('p', 'c</w>')": 1316,
    "('v', 'el</w>')": 1317,
    "('le', 'vel</w>')": 1318,
    "('l', 'ựa</w>')": 1319,
    "('đ', 'ạ')": 1320,
    "('ộ', 'n</w>')": 1321,
    "('c', 'ục</w>')": 1322,
    "('thu', 'a</w>')": 1323,
    "('sh', 'i')": 1324,
    "('db', 'ack</w>')": 1325,
    "('f', 'ee')": 1326,
    "('fee', 'dback</w>')": 1327,
    "('dạ', 'y</w>')": 1328,
    "('y', 'sta')": 1329,
    "('cr', 'ysta')": 1330,
    "('n', 'ém</w>')": 1331,
    "('ender', 'man</w>')": 1332,
    "('k', 'er</w>')": 1333,
    "('sh', 'ul')": 1334,
    "('shul', 'ker</w>')": 1335,
    "('m', 'ending</w>')": 1336,
    "('a', 'l</w>')": 1337,
    "('r', 'ay</w>')": 1338,
    "('af', 'k</w>')": 1339,
    "('ti', 'me</w>')": 1340,
    "('di', 's')": 1341,
    "('dis', 'cor')": 1342,
    "('discor', 'd</w>')": 1343,
    "('d', 'ow')": 1344,
    "('to', 'án</w>')": 1345,
    "('x', 'in</w>')": 1346,
    "('g', 'óp</w>')": 1347,
    "('ch', 'ắn</w>')": 1348,
    "('can', 'ada</w>')": 1349,
    "('th', 'ắp</w>')": 1350,
    "('ng', 'ầm</w>')": 1351,
    "('g', 'ạch</w>')": 1352,
    "('s', 'ăn</w>')": 1353,
    "('gi', 'ày</w>')": 1354,
    "('qu', 'e</w>')": 1355,
    "('hạ', 't</w>')": 1356,
    "('ố', 't</w>')": 1357,
    "('d', 'ây</w>')": 1358,
    "('đ', 'ói</w>')": 1359,
    "('m', 'ời</w>')": 1360,
    "('g', '</w>')": 1361,
    "('kh', 'ởi</w>')": 1362,
    "('g', 'ỡ</w>')": 1363,
    "('ma', 'il</w>')": 1364,
    "('k', 'ý</w>')": 1365,
    "('d', 'core</w>')": 1366,
    "('har', 'dcore</w>')": 1367,
    "('l', 'ối</w>')": 1368,
    "('c', 'u')": 1369,
    "('đ', 'ảm</w>')": 1370,
    "('kh', 'óc</w>')": 1371,
    "('t', 'úc</w>')": 1372,
    "('b', 'ố</w>')": 1373,
    "('r', 'út</w>')": 1374,
    "('v', 'ượt</w>')": 1375,
    "('t', 'ới</w>')": 1376,
    "('ng', 'ôn</w>')": 1377,
    "('s', 'ếp</w>')": 1378,
    "('k', 'ịp</w>')": 1379,
    "('h', 'ỏng</w>')": 1380,
    "('chi', 'll</w>')": 1381,
    "('b', 'óng</w>')": 1382,
    "('t', 'ỷ</w>')": 1383,
    "('ng', 'ân</w>')": 1384,
    "('v', 'ăn</w>')": 1385,
    "('c', 'am</w>')": 1386,
    "('tr', 'ốn</w>')": 1387,
    "('x', 'ương</w>')": 1388,
    "('tr', 'ăm</w>')": 1389,
    "('tr', 'ần</w>')": 1390,
    "('l', 'ục</w>')": 1391,
    "('r', 'ơi</w>')": 1392,
    "('ph', 'ê</w>')": 1393,
    "('y', 'o')": 1394,
    "('yo', 'ga</w>')": 1395,
    "('ụ', 'p</w>')": 1396,
    "('ch', 'ụp</w>')": 1397,
    "('a', 'te</w>')": 1398,
    "('thu', 'ận</w>')": 1399,
    "('v', 'ẽ</w>')": 1400,
    "('truy', 'ền</w>')": 1401,
    "('n', 'am</w>')": 1402,
    "('d', 'ữ</w>')": 1403,
    "('v', 'en')": 1404,
    "('bu', 't')": 1405,
    "('but', 'ton</w>')": 1406,
    "('th', 'ái</w>')": 1407,
    "('nh', 'ặt</w>')": 1408,
    "('i', 'ld</w>')": 1409,
    "('f', 'i')": 1410,
    "('g', 'e</w>')": 1411,
    "('m', 'ẹ')": 1412,
    "('mẹ', 'o</w>')": 1413,
    "('ề', 'm</w>')": 1414,
    "('gi', 'ả</w>')": 1415,
    "('đ', 'ẩ')": 1416,
    "('đẩ', 'y</w>')": 1417,
    "('tr', 'ở</w>')": 1418,
    "('nh', 'ờ</w>')": 1419,
    "('tr', 'ưởng</w>')": 1420,
    "('g', 'ấp</w>')": 1421,
    "('l', 's</w>')": 1422,
    "('crysta', 'ls</w>')": 1423,
    "('v', 'er')": 1424,
    "('ver', 'world</w>')": 1425,
    "('o', 'verworld</w>')": 1426,
    "('b', 'a')": 1427,
    "('u', 'n')": 1428,
    "('a', 'king</w>')": 1429,
    "('b', 're')": 1430,
    "('un', 'bre')": 1431,
    "('unbre', 'aking</w>')": 1432,
    "('ingo', 't</w>')": 1433,
    "('mith', 'ing</w>')": 1434,
    "('s', 'mithing</w>')": 1435,
    "('ta', 'ble</w>')": 1436,
    "('ob', 'server</w>')": 1437,
    "('k', 'y</w>')": 1438,
    "('c', 'ky</w>')": 1439,
    "('sti', 'cky</w>')": 1440,
    "('che', 'st</w>')": 1441,
    "('sta', 'ir</w>')": 1442,
    "('up', 'time</w>')": 1443,
    "('g', 'roup</w>')": 1444,
    "('n', 'è</w>')": 1445,
    "('he', 'y</w>')": 1446,
    "('h', 'i</w>')": 1447,
    "('a', 'lo</w>')": 1448,
    "('ừ', '</w>')": 1449,
    "('m', 'ày</w>')": 1450,
    "('tr', 'àn</w>')": 1451,
    "('m', 'ơ</w>')": 1452,
    "('he', 'he</w>')": 1453,
    "('y', 'e</w>')": 1454,
    "('vu', 'ông</w>')": 1455,
    "('miế', 'ng</w>')": 1456,
    "('c', 'à</w>')": 1457,
    "('c', 'ánh</w>')": 1458,
    "('m', 'ốc</w>')": 1459,
    "('v', 'ội</w>')": 1460,
    "('t', 'ặng</w>')": 1461,
    "('lã', 'ng</w>')": 1462,
    "('m', 'ấy</w>')": 1463,
    "('ó', 'n</w>')": 1464,
    "('wi', 'fi</w>')": 1465,
    "('m', 'ượt</w>')": 1466,
    "('e', 'mail</w>')": 1467,
    "('b', 'ảng</w>')": 1468,
    "('h', 'út</w>')": 1469,
    "('ter', 'n</w>')": 1470,
    "('gh', 'ế</w>')": 1471,
    "('s', 'àn</w>')": 1472,
    "('m', 'ô</w>')": 1473,
    "('n', 'ông</w>')": 1474,
    "('tr', 'ại</w>')": 1475,
    "('s', 'a')": 1476,
    "('h', 'ối</w>')": 1477,
    "('kh', 'ứ</w>')": 1478,
    "('l', 'ặng</w>')": 1479,
    "('v', 'ô</w>')": 1480,
    "('d', 'ừng</w>')": 1481,
    "('c', 'ốt</w>')": 1482,
    "('ng', 'ược</w>')": 1483,
    "('m', 'ôi</w>')": 1484,
    "('r', 'ác</w>')": 1485,
    "('kho', 'ảnh</w>')": 1486,
    "('kh', 'ắc</w>')": 1487,
    "('tr', 'ượt</w>')": 1488,
    "('n', 'ặng</w>')": 1489,
    "('spac', 'e')": 1490,
    "('th', 'ụ</w>')": 1491,
    "('ngo', 'ại</w>')": 1492,
    "('v', 'ựng</w>')": 1493,
    "('tuy', 'ển</w>')": 1494,
    "('d', 'òng</w>')": 1495,
    "('ta', 'sk</w>')": 1496,
    "('n', 'ản</w>')": 1497,
    "('b', 'ảy</w>')": 1498,
    "('r', 'au</w>')": 1499,
    "('ro', 'te')": 1500,
    "('p', 'rote')": 1501,
    "('m', 'ỏi</w>')": 1502,
    "('s', 'ử</w>')": 1503,
    "('h', 'ài</w>')": 1504,
    "('l', 'ọ')": 1505,
    "('g', 'ợi</w>')": 1506,
    "('f', 'le')": 1507,
    "('fle', 'x</w>')": 1508,
    "('vi', 'be</w>')": 1509,
    "('su', 's</w>')": 1510,
    "('ng', 'ờ</w>')": 1511,
    "('mi', 'd</w>')": 1512,
    "('d', 'ương</w>')": 1513,
    "('l', 'á</w>')": 1514,
    "('v', 'òng</w>')": 1515,
    "('r', 'ời</w>')": 1516,
    "('b', 'ác</w>')": 1517,
    "('b', 'ổng</w>')": 1518,
    "('gi', 'áo</w>')": 1519,
    "('t', 'ổ</w>')": 1520,
    "('kho', 'án</w>')": 1521,
    "('th', 'ủy</w>')": 1522,
    "('í', 'm</w>')": 1523,
    "('t', 'ím</w>')": 1524,
    "('b', 'ánh</w>')": 1525,
    "('lo', 'ài</w>')": 1526,
    "('h', 'ủy</w>')": 1527,
    "('k', 'ẻ</w>')": 1528,
    "('d', 'ân</w>')": 1529,
    "('b', 'án</w>')": 1530,
    "('đ', 'ưa</w>')": 1531,
    "('h', 'òa</w>')": 1532,
    "('kh', 'ung</w>')": 1533,
    "('t', 'ắc</w>')": 1534,
    "('c', 'ầm</w>')": 1535,
    "('ph', 'óng</w>')": 1536,
    "('m', 'ắc</w>')": 1537,
    "('min', 'd')": 1538,
    "('ne', 'ss</w>')": 1539,
    "('ch', 'ăm</w>')": 1540,
    "('s', 'óc</w>')": 1541,
    "('l', 'ệ</w>')": 1542,
    "('mo', 'd</w>')": 1543,
    "('d', 'ate</w>')": 1544,
    "('up', 'date</w>')": 1545,
    "('a', 'tor</w>')": 1546,
    "('kh', 'iển</w>')": 1547,
    "('n', 'út</w>')": 1548,
    "('in', 'ven')": 1549,
    "('inven', 'tor')": 1550,
    "('inventor', 'y</w>')": 1551,
    "('m', 'ẫu</w>')": 1552,
    "('chu', 'ột</w>')": 1553,
    "('b', 'ột</w>')": 1554,
    "('le', 'ver</w>')": 1555,
    "('ng', 'ẫu</w>')": 1556,
    "('ng', 'ô</w>')": 1557,
    "('gu', 'ild</w>')": 1558,
    "('re', 'port</w>')": 1559,
    "('pa', 'ge</w>')": 1560,
    "('f', 'an')": 1561,
    "('fan', 'page</w>')": 1562,
    "('r', 'èn</w>')": 1563,
    "('ũ', 'y</w>')": 1564,
    "('l', 'ũy</w>')": 1565,
    "('i', 'ềm</w>')": 1566,
    "('n', 'iềm</w>')": 1567,
    "('m', 'y</w>')": 1568,
    "('ade', 'my</w>')": 1569,
    "('đạ', 't</w>')": 1570,
    "('mu', 'ộn</w>')": 1571,
    "('th', 'úc</w>')": 1572,
    "('shi', 'p</w>')": 1573,
    "('d', 'ắt</w>')": 1574,
    "('họ', 'p</w>')": 1575,
    "('s', 'ản</w>')": 1576,
    "('ng', 'ọc</w>')": 1577,
    "('ẹ', 't</w>')": 1578,
    "('d', 'ập</w>')": 1579,
    "('thuy', 'ền</w>')": 1580,
    "('đ', 'áy</w>')": 1581,
    "('thu', 'ần</w>')": 1582,
    "('g', 'ấu</w>')": 1583,
    "('por', 'tal</w>')": 1584,
    "('gha', 'st</w>')": 1585,
    "('ph', 'un</w>')": 1586,
    "('e', 'acon</w>')": 1587,
    "('b', 'eacon</w>')": 1588,
    "('tre', 'ss</w>')": 1589,
    "('for', 'tress</w>')": 1590,
    "('pi', 'g')": 1591,
    "('pig', 'lin</w>')": 1592,
    "('pe', 'ar')": 1593,
    "('pear', 'l</w>')": 1594,
    "('ou', 'ter</w>')": 1595,
    "('it', 'y</w>')": 1596,
    "('bo', 'x</w>')": 1597,
    "('up', 'g')": 1598,
    "('r', 'ade</w>')": 1599,
    "('upg', 'rade</w>')": 1600,
    "('ne', 'd</w>')": 1601,
    "('drow', 'ned</w>')": 1602,
    "('cro', 's')": 1603,
    "('s', 'bow</w>')": 1604,
    "('cros', 'sbow</w>')": 1605,
    "('ma', 'tion</w>')": 1606,
    "('a', 'u')": 1607,
    "('to', 'mation</w>')": 1608,
    "('au', 'tomation</w>')": 1609,
    "('co', 'm')": 1610,
    "('ho', 'pper</w>')": 1611,
    "('sor', 't</w>')": 1612,
    "('chu', 'ông</w>')": 1613,
    "('dro', 'pper</w>')": 1614,
    "('an', 'vil</w>')": 1615,
    "('nh', 'ắn</w>')": 1616,
    "('z', 'le</w>')": 1617,
    "('z', 'zle</w>')": 1618,
    "('u', 'zzle</w>')": 1619,
    "('p', 'uzzle</w>')": 1620,
    "('sk', 'y')": 1621,
    "('sky', 'block</w>')": 1622,
    "('th', 'ơ</w>')": 1623,
    "('u', 'ộ')": 1624,
    "('nh', 'uộ')": 1625,
    "('nhuộ', 'm</w>')": 1626,
    "('low', 'stone</w>')": 1627,
    "('g', 'lowstone</w>')": 1628,
    "('la', 'b</w>')": 1629,
    "('s', 'lab</w>')": 1630,
    "('dow', 'n</w>')": 1631,
    "('a', 'ir</w>')": 1632,
    "('f', 'air</w>')": 1633,
    "('cha', 't</w>')": 1634,
    "('nh', 'u</w>')": 1635,
    "('hel', 'lo</w>')": 1636,
    "('ì', 'a</w>')": 1637,
    "('c', 'úng</w>')": 1638,
    "('b', 'ởi</w>')": 1639,
    "('nh', 'iệt</w>')": 1640,
    "('goo', 'db')": 1641,
    "('goodb', 'ye</w>')": 1642,
    "('t', 'ỉnh</w>')": 1643,
    "('ch', 'éo</w>')": 1644,
    "('s', 'ứ</w>')": 1645,
    "('r', 'ẻ</w>')": 1646,
    "('s', 'ợi</w>')": 1647,
    "('m', 'ũ</w>')": 1648,
    "('qu', 'ần</w>')": 1649,
    "('th', 'ừng</w>')": 1650,
    "('tele', 'port</w>')": 1651,
    "('t', 'òa</w>')": 1652,
    "('h', 'ầm</w>')": 1653,
    "('t', 'ủ</w>')": 1654,
    "('g', 'ọn</w>')": 1655,
    "('d', 'àng</w>')": 1656,
    "('4', 'g</w>')": 1657,
    "('x', 'u</w>')": 1658,
    "('to', 'p</w>')": 1659,
    "('spi', 'der</w>')": 1660,
    "('ù', 'i</w>')": 1661,
    "('l', 'ùi</w>')": 1662,
    "('t', 'tern</w>')": 1663,
    "('pa', 'ttern</w>')": 1664,
    "('th', 'ảm</w>')": 1665,
    "('s', 'ân</w>')": 1666,
    "('b', 'i</w>')": 1667,
    "('w', 'a')": 1668,
    "('l', 'ội</w>')": 1669,
    "('k', 'ìm</w>')": 1670,
    "('n', 'é')": 1671,
    "('né', 'n</w>')": 1672,
    "('y', 'a')": 1673,
    "('t', 'í</w>')": 1674,
    "('n', 'ỗi</w>')": 1675,
    "('d', 'ũ')": 1676,
    "('dũ', 'ng</w>')": 1677,
    "('th', 'ầy</w>')": 1678,
    "('b', 'ề</w>')": 1679,
    "('b', 'ốc</w>')": 1680,
    "('nh', 'ựa</w>')": 1681,
    "('lu', 'ận</w>')": 1682,
    "('space', 'd</w>')": 1683,
    "('pe', 'tition</w>')": 1684,
    "('re', 'petition</w>')": 1685,
    "('s', 'ạch</w>')": 1686,
    "('t', 'y</w>')": 1687,
    "('de', 'ad')": 1688,
    "('dead', 'line</w>')": 1689,
    "('t', 'ổng</w>')": 1690,
    "('kh', 'uya</w>')": 1691,
    "('prote', 'in</w>')": 1692,
    "('v', 'ươn</w>')": 1693,
    "('v', 'ai</w>')": 1694,
    "('g', 'ốc</w>')": 1695,
    "('ơ', 'm</w>')": 1696,
    "('c', 'ơm</w>')": 1697,
    "('kh', 'áng</w>')": 1698,
    "('r', 'n')": 1699,
    "('bu', 'rn')": 1700,
    "('burn', 'ou')": 1701,
    "('burnou', 't</w>')": 1702,
    "('v', 'ợ</w>')": 1703,
    "('l', 'ặt</w>')": 1704,
    "('v', 'ặt</w>')": 1705,
    "('s', 'ên</w>')": 1706,
    "('r', 'ùa</w>')": 1707,
    "('ch', 'ê</w>')": 1708,
    "('mine', 'craft</w>')": 1709,
    "('a', 'larm</w>')": 1710,
    "('miệ', 'ng</w>')": 1711,
    "('lọ', '</w>')": 1712,
    "('chu', 'i</w>')": 1713,
    "('đ', 'inh</w>')": 1714,
    "('ng', 'ầu</w>')": 1715,
    "('tuy', 'ệt</w>')": 1716,
    "('v', 'ời</w>')": 1717,
    "('kho', 'e</w>')": 1718,
    "('c', 'ăng</w>')": 1719,
    "('u', 's</w>')": 1720,
    "('th', 'iên</w>')": 1721,
    "('x', 'u')": 1722,
    "('xu', 'ân</w>')": 1723,
    "('n', 'ở</w>')": 1724,
    "('b', 'ăng</w>')": 1725,
    "('r', 'ạp</w>')": 1726,
    "('x', 'ăng</w>')": 1727,
    "('r', 'ành</w>')": 1728,
    "('e', 'w</w>')": 1729,
    "('re', 'vi')": 1730,
    "('revi', 'ew</w>')": 1731,
    "('di', 'ễn</w>')": 1732,
    "('đo', 'án</w>')": 1733,
    "('vi', 'sa</w>')": 1734,
    "('qu', 'án</w>')": 1735,
    "('n', 'o</w>')": 1736,
    "('tr', 'ứng</w>')": 1737,
    "('s', 'ữa</w>')": 1738,
    "('v', 'ây</w>')": 1739,
    "('ngh', 'ìn</w>')": 1740,
    "('nghi', 'êng</w>')": 1741,
    "('d', 'ốc</w>')": 1742,
    "('s', 'ắc</w>')": 1743
  },
  "special_tokens": {
    "PAD": 0,
    "UNK": 1,
    "BOS": 2,
    "EOS": 3,
    "SEP": 4
  }
}